{
    "encoder": {
        "<unk>": 1,
        "<pad>": 0,
        "<bos>": 2,
        "<eos>": 3,
        "e": 4,
        "J": 5,
        "A": 6,
        "G": 7,
        "a": 8,
        "p": 9,
        "M": 10,
        "D": 11,
        "X": 12,
        "v": 13,
        "o": 14,
        "n": 15,
        "m": 16,
        "K": 17,
        "B": 18,
        "U": 19,
        "b": 20,
        "H": 21,
        "I": 22,
        "f": 23,
        "V": 24,
        "u": 25,
        "S": 26,
        "s": 27,
        "d": 28,
        "C": 29,
        "Z": 30,
        "L": 31,
        "l": 32,
        "z": 33,
        "x": 34,
        "E": 35,
        "F": 36,
        "w": 37,
        "t": 38,
        "i": 39,
        "O": 40,
        "R": 41,
        "W": 42,
        "P": 43,
        "h": 44,
        "g": 45,
        "c": 46,
        "q": 47,
        "Q": 48,
        "y": 49,
        "T": 50,
        "j": 51,
        "r": 52,
        "N": 53,
        "Y": 54,
        "k": 55,
        "Im": 56,
        "tu": 57,
        "ag": 58,
        "Ou": 59,
        "su": 60,
        "WW": 61,
        "Lu": 62,
        "pr": 63,
        "Mu": 64,
        "nu": 65,
        "Br": 66,
        "Em": 67,
        "ex": 68,
        "Ox": 69,
        "or": 70,
        "Su": 71,
        "el": 72,
        "Al": 73,
        "ev": 74,
        "ar": 75,
        "am": 76,
        "ti": 77,
        "Au": 78,
        "Pu": 79,
        "er": 80,
        "pu": 81,
        "om": 82,
        "Am": 83,
        "Hu": 84,
        "cm": 85,
        "Ju": 86,
        "ng": 87,
        "ju": 88,
        "ol": 89,
        "ow": 90,
        "av": 91,
        "au": 92,
        "Eg": 93,
        "Eu": 94,
        "fu": 95,
        "ov": 96,
        "cu": 97,
        "th": 98,
        "cr": 99,
        "bu": 100,
        "Ll": 101,
        "eg": 102,
        "Bu": 103,
        "qu": 104,
        "al": 105,
        "tw": 106,
        "tr": 107,
        "Ur": 108,
        "Hy": 109,
        "Mc": 110,
        "ch": 111,
        "ou": 112,
        "TW": 113,
        "em": 114,
        "du": 115,
        "fr": 116,
        "Ku": 117,
        "Ex": 118,
        "eem": 119,
        "aga": 120,
        "exh": 121,
        "mel": 122,
        "hal": 123,
        "sex": 124,
        "Bra": 125,
        "onu": 126,
        "tra": 127,
        "evi": 128,
        "pow": 129,
        "hou": 130,
        "qui": 131,
        "ntu": 132,
        "der": 133,
        "nov": 134,
        "ser": 135,
        "omi": 136,
        "Bor": 137,
        "Por": 138,
        "str": 139,
        "now": 140,
        "mar": 141,
        "mem": 142,
        "Hol": 143,
        "Dom": 144,
        "lev": 145,
        "oom": 146,
        "oal": 147,
        "ovi": 148,
        "rth": 149,
        "pre": 150,
        "Tem": 151,
        "nam": 152,
        "ndu": 153,
        "Eng": 154,
        "rom": 155,
        "fro": 156,
        "fol": 157,
        "eti": 158,
        "scu": 159,
        "fam": 160,
        "ber": 161,
        "cul": 162,
        "Sou": 163,
        "pti": 164,
        "oli": 165,
        "olo": 166,
        "old": 167,
        "dor": 168,
        "tel": 169,
        "rar": 170,
        "All": 171,
        "Bur": 172,
        "eal": 173,
        "Bui": 174,
        "els": 175,
        "ner": 176,
        "sul": 177,
        "emb": 178,
        "tur": 179,
        "dow": 180,
        "Sul": 181,
        "Col": 182,
        "nsu": 183,
        "all": 184,
        "ero": 185,
        "Aug": 186,
        "our": 187,
        "cti": 188,
        "thr": 189,
        "leg": 190,
        "rou": 191,
        "agu": 192,
        "ter": 193,
        "esu": 194,
        "val": 195,
        "ham": 196,
        "Dar": 197,
        "del": 198,
        "nar": 199,
        "lag": 200,
        "chi": 201,
        "vol": 202,
        "Lou": 203,
        "hel": 204,
        "Emp": 205,
        "fun": 206,
        "the": 207,
        "rti": 208,
        "row": 209,
        "ecr": 210,
        "cho": 211,
        "tre": 212,
        "cur": 213,
        "tti": 214,
        "low": 215,
        "ntr": 216,
        "eau": 217,
        "pub": 218,
        "eer": 219,
        "tom": 220,
        "qua": 221,
        "suc": 222,
        "itu": 223,
        "For": 224,
        "nfu": 225,
        "rem": 226,
        "exc": 227,
        "agg": 228,
        "cre": 229,
        "Bri": 230,
        "eng": 231,
        "iel": 232,
        "bul": 233,
        "amp": 234,
        "sau": 235,
        "aug": 236,
        "tal": 237,
        "arm": 238,
        "lar": 239,
        "atu": 240,
        "Ner": 241,
        "ral": 242,
        "apr": 243,
        "ccu": 244,
        "lom": 245,
        "efu": 246,
        "amb": 247,
        "Pal": 248,
        "rel": 249,
        "cou": 250,
        "oll": 251,
        "hol": 252,
        "tex": 253,
        "tow": 254,
        "etr": 255,
        "oug": 256,
        "Kar": 257,
        "nth": 258,
        "oti": 259,
        "bar": 260,
        "Str": 261,
        "eag": 262,
        "lav": 263,
        "pol": 264,
        "Mar": 265,
        "Car": 266,
        "lem": 267,
        "org": 268,
        "thi": 269,
        "her": 270,
        "sur": 271,
        "Ali": 272,
        "eve": 273,
        "Bru": 274,
        "out": 275,
        "ich": 276,
        "Sev": 277,
        "pal": 278,
        "Ang": 279,
        "aul": 280,
        "lam": 281,
        "ctu": 282,
        "Lor": 283,
        "emo": 284,
        "beg": 285,
        "cem": 286,
        "bom": 287,
        "cru": 288,
        "Ear": 289,
        "Per": 290,
        "fer": 291,
        "egi": 292,
        "hav": 293,
        "sem": 294,
        "acr": 295,
        "sti": 296,
        "tro": 297,
        "dou": 298,
        "dar": 299,
        "por": 300,
        "Bel": 301,
        "exp": 302,
        "bur": 303,
        "emp": 304,
        "ari": 305,
        "fri": 306,
        "ele": 307,
        "Hor": 308,
        "wor": 309,
        "war": 310,
        "agr": 311,
        "fra": 312,
        "teg": 313,
        "Wal": 314,
        "nem": 315,
        "inu": 316,
        "bum": 317,
        "ach": 318,
        "aud": 319,
        "ssu": 320,
        "hom": 321,
        "nti": 322,
        "nch": 323,
        "Bar": 324,
        "Val": 325,
        "pro": 326,
        "Har": 327,
        "tri": 328,
        "Nor": 329,
        "ctr": 330,
        "bus": 331,
        "fav": 332,
        "nnu": 333,
        "ori": 334,
        "ecu": 335,
        "nju": 336,
        "sum": 337,
        "Her": 338,
        "dam": 339,
        "ibu": 340,
        "tar": 341,
        "eth": 342,
        "tor": 343,
        "nom": 344,
        "Ber": 345,
        "cri": 346,
        "Kor": 347,
        "Ver": 348,
        "cha": 349,
        "odu": 350,
        "cro": 351,
        "Com": 352,
        "ong": 353,
        "ith": 354,
        "oul": 355,
        "tou": 356,
        "Sur": 357,
        "ous": 358,
        "aur": 359,
        "ell": 360,
        "rav": 361,
        "rol": 362,
        "ali": 363,
        "ing": 364,
        "sou": 365,
        "sel": 366,
        "fru": 367,
        "Sum": 368,
        "nav": 369,
        "usu": 370,
        "eli": 371,
        "cer": 372,
        "tem": 373,
        "Ger": 374,
        "gar": 375,
        "eor": 376,
        "enu": 377,
        "Cal": 378,
        "adu": 379,
        "fur": 380,
        "lti": 381,
        "Cor": 382,
        "sal": 383,
        "zar": 384,
        "num": 385,
        "sev": 386,
        "cal": 387,
        "lau": 388,
        "bui": 389,
        "fem": 390,
        "Nav": 391,
        "bor": 392,
        "dem": 393,
        "mag": 394,
        "eri": 395,
        "Pol": 396,
        "Wor": 397,
        "eel": 398,
        "ath": 399,
        "Som": 400,
        "sol": 401,
        "ech": 402,
        "cau": 403,
        "sor": 404,
        "arr": 405,
        "ear": 406,
        "etw": 407,
        "per": 408,
        "pur": 409,
        "ala": 410,
        "Mor": 411,
        "oun": 412,
        "Bul": 413,
        "cor": 414,
        "seg": 415,
        "eav": 416,
        "ext": 417,
        "ava": 418,
        "ram": 419,
        "Spr": 420,
        "uti": 421,
        "iam": 422,
        "sus": 423,
        "ami": 424,
        "deg": 425,
        "ier": 426,
        "anu": 427,
        "Sch": 428,
        "lou": 429,
        "oor": 430,
        "err": 431,
        "Nov": 432,
        "eva": 433,
        "hor": 434,
        "exi": 435,
        "emi": 436,
        "ome": 437,
        "Par": 438,
        "fal": 439,
        "alc": 440,
        "cra": 441,
        "cam": 442,
        "Stu": 443,
        "ama": 444,
        "for": 445,
        "sug": 446,
        "Mal": 447,
        "mor": 448,
        "oth": 449,
        "amm": 450,
        "par": 451,
        "gam": 452,
        "squ": 453,
        "Ser": 454,
        "nag": 455,
        "amu": 456,
        "pri": 457,
        "nal": 458,
        "eam": 459,
        "how": 460,
        "oem": 461,
        "col": 462,
        "stu": 463,
        "fel": 464,
        "som": 465,
        "com": 466,
        "War": 467,
        "kam": 468,
        "idu": 469,
        "Rou": 470,
        "arg": 471,
        "iol": 472,
        "ers": 473,
        "rch": 474,
        "iti": 475,
        "sch": 476,
        "tru": 477,
        "equ": 478,
        "atr": 479,
        "edu": 480,
        "aru": 481,
        "var": 482,
        "bal": 483,
        "Mus": 484,
        "ati": 485,
        "mov": 486,
        "Fer": 487,
        "ver": 488,
        "uar": 489,
        "neg": 490,
        "lor": 491,
        "wal": 492,
        "own": 493,
        "car": 494,
        "Eur": 495,
        "Gar": 496,
        "fre": 497,
        "Bro": 498,
        "ocu": 499,
        "Egy": 500,
        "mer": 501,
        "har": 502,
        "ara": 503,
        "You": 504,
        "stw": 505,
        "ful": 506,
        "reg": 507,
        "spr": 508,
        "ang": 509,
        "ela": 510,
        "sup": 511,
        "asu": 512,
        "nor": 513,
        "sub": 514,
        "bel": 515,
        "pul": 516,
        "ord": 517,
        "tch": 518,
        "Tor": 519,
        "you": 520,
        "Dav": 521,
        "proc": 522,
        "Hung": 523,
        "reve": 524,
        "Sara": 525,
        "heel": 526,
        "Clau": 527,
        "Fern": 528,
        "agaz": 529,
        "requ": 530,
        "seem": 531,
        "susp": 532,
        "crow": 533,
        "Thom": 534,
        "inju": 535,
        "reli": 536,
        "ever": 537,
        "peri": 538,
        "ntur": 539,
        "ecur": 540,
        "ptur": 541,
        "heav": 542,
        "Arth": 543,
        "quad": 544,
        "avai": 545,
        "spre": 546,
        "ondu": 547,
        "iscu": 548,
        "emor": 549,
        "ster": 550,
        "poli": 551,
        "patr": 552,
        "</w>": 553,
        "icha": 554,
        "anch": 555,
        "thir": 556,
        "four": 557,
        "Colo": 558,
        "oper": 559,
        "Rich": 560,
        "regi": 561,
        "atur": 562,
        "situ": 563,
        "nver": 564,
        "entr": 565,
        "astr": 566,
        "King": 567,
        "larg": 568,
        "Cold": 569,
        "Comp": 570,
        "icul": 571,
        "nfor": 572,
        "entu": 573,
        "regu": 574,
        "shar": 575,
        "radu": 576,
        "esti": 577,
        "sear": 578,
        "ream": 579,
        "sing": 580,
        "Mala": 581,
        "doll": 582,
        "ider": 583,
        "isti": 584,
        "sequ": 585,
        "atem": 586,
        "Lore": 587,
        "Cour": 588,
        "teve": 589,
        "nter": 590,
        "Sapr": 591,
        "carr": 592,
        "ctor": 593,
        "rcul": 594,
        "bell": 595,
        "epti": 596,
        "eleb": 597,
        "marr": 598,
        "eter": 599,
        "tarr": 600,
        "Mark": 601,
        "itar": 602,
        "colo": 603,
        "Zeal": 604,
        "ikam": 605,
        "star": 606,
        "ritu": 607,
        "call": 608,
        "tatu": 609,
        "know": 610,
        "efer": 611,
        "demo": 612,
        "sold": 613,
        "beli": 614,
        "asur": 615,
        "angu": 616,
        "buil": 617,
        "intr": 618,
        "comp": 619,
        "deli": 620,
        "ichi": 621,
        "nchi": 622,
        "ncer": 623,
        "ntil": 624,
        "nder": 625,
        "oati": 626,
        "stru": 627,
        "bral": 628,
        "Town": 629,
        "Shor": 630,
        "opul": 631,
        "ccor": 632,
        "Tetr": 633,
        "Janu": 634,
        "egis": 635,
        "imag": 636,
        "ampa": 637,
        "iter": 638,
        "orig": 639,
        "some": 640,
        "feel": 641,
        "focu": 642,
        "tran": 643,
        "yram": 644,
        "curr": 645,
        "Coll": 646,
        "Oreg": 647,
        "iver": 648,
        "agre": 649,
        "nthe": 650,
        "slow": 651,
        "eser": 652,
        "ampi": 653,
        "chan": 654,
        "ulti": 655,
        "vari": 656,
        "near": 657,
        "evel": 658,
        "expl": 659,
        "vidu": 660,
        "sour": 661,
        "istr": 662,
        "ttem": 663,
        "riti": 664,
        "heli": 665,
        "itis": 666,
        "moun": 667,
        "fiel": 668,
        "achi": 669,
        "ssau": 670,
        "stem": 671,
        "itor": 672,
        "terr": 673,
        "Gall": 674,
        "purp": 675,
        "venu": 676,
        "revi": 677,
        "burg": 678,
        "Engl": 679,
        "ilom": 680,
        "nstr": 681,
        "inem": 682,
        "carb": 683,
        "azar": 684,
        "subs": 685,
        "arch": 686,
        "efor": 687,
        "Grou": 688,
        "etra": 689,
        "etch": 690,
        "ersh": 691,
        "Regi": 692,
        "oder": 693,
        "come": 694,
        "colu": 695,
        "stor": 696,
        "temn": 697,
        "osau": 698,
        "Afri": 699,
        "Geor": 700,
        "worl": 701,
        "enem": 702,
        "prim": 703,
        "enti": 704,
        "chit": 705,
        "comb": 706,
        "ensu": 707,
        "aero": 708,
        "lori": 709,
        "Comm": 710,
        "Mong": 711,
        "annu": 712,
        "scor": 713,
        "extr": 714,
        "Demo": 715,
        "quic": 716,
        "ring": 717,
        "evol": 718,
        "Irel": 719,
        "elim": 720,
        "viol": 721,
        "tali": 722,
        "prec": 723,
        "roug": 724,
        "spor": 725,
        "onom": 726,
        "busi": 727,
        "Stor": 728,
        "show": 729,
        "Lati": 730,
        "ecti": 731,
        "Sovi": 732,
        "ffer": 733,
        "fter": 734,
        "ccur": 735,
        "sugg": 736,
        "nali": 737,
        "resu": 738,
        "ntra": 739,
        "scre": 740,
        "priv": 741,
        "prin": 742,
        "tour": 743,
        "thre": 744,
        "rele": 745,
        "metr": 746,
        "ater": 747,
        "equi": 748,
        "Shol": 749,
        "accu": 750,
        "narr": 751,
        "estr": 752,
        "argu": 753,
        "easu": 754,
        "Stra": 755,
        "olog": 756,
        "indu": 757,
        "hang": 758,
        "with": 759,
        "down": 760,
        "daug": 761,
        "pear": 762,
        "stra": 763,
        "prom": 764,
        "publ": 765,
        "sati": 766,
        "retr": 767,
        "ther": 768,
        "free": 769,
        "asti": 770,
        "meth": 771,
        "icti": 772,
        "ttor": 773,
        "prog": 774,
        "arri": 775,
        "semi": 776,
        "eali": 777,
        "anti": 778,
        "etro": 779,
        "crui": 780,
        "exhi": 781,
        "auth": 782,
        "minu": 783,
        "shor": 784,
        "clar": 785,
        "term": 786,
        "chil": 787,
        "jour": 788,
        "ppor": 789,
        "pred": 790,
        "anag": 791,
        "degr": 792,
        "omin": 793,
        "volu": 794,
        "stri": 795,
        "over": 796,
        "full": 797,
        "genu": 798,
        "coll": 799,
        "mpor": 800,
        "adel": 801,
        "tati": 802,
        "ptem": 803,
        "awar": 804,
        "diti": 805,
        "onsu": 806,
        "perm": 807,
        "sexu": 808,
        "lear": 809,
        "emph": 810,
        "ecor": 811,
        "barr": 812,
        "Euro": 813,
        "chai": 814,
        "liam": 815,
        "comm": 816,
        "Oper": 817,
        "rang": 818,
        "adem": 819,
        "ppar": 820,
        "pers": 821,
        "atio": 822,
        "stur": 823,
        "onti": 824,
        "refu": 825,
        "each": 826,
        "ctur": 827,
        "Colu": 828,
        "cour": 829,
        "nvol": 830,
        "redu": 831,
        "niti": 832,
        "pres": 833,
        "prov": 834,
        "turr": 835,
        "ader": 836,
        "ecre": 837,
        "dram": 838,
        "ssel": 839,
        "poem": 840,
        "Muse": 841,
        "grow": 842,
        "atch": 843,
        "Sing": 844,
        "scul": 845,
        "pris": 846,
        "grou": 847,
        "prot": 848,
        "leav": 849,
        "Burm": 850,
        "itch": 851,
        "ccup": 852,
        "manu": 853,
        "rema": 854,
        "Apri": 855,
        "secu": 856,
        "assu": 857,
        "Imag": 858,
        "Valk": 859,
        "ncre": 860,
        "onum": 861,
        "apol": 862,
        "ppro": 863,
        "Heav": 864,
        "achu": 865,
        "thei": 866,
        "cred": 867,
        "Cali": 868,
        "earl": 869,
        "ound": 870,
        "Mexi": 871,
        "actu": 872,
        "Moun": 873,
        "docu": 874,
        "echn": 875,
        "uerr": 876,
        "corr": 877,
        "ener": 878,
        "epar": 879,
        "succ": 880,
        "crew": 881,
        "Coun": 882,
        "ynag": 883,
        "trea": 884,
        "char": 885,
        "eder": 886,
        "prob": 887,
        "Char": 888,
        "emer": 889,
        "torp": 890,
        "fami": 891,
        "ator": 892,
        "ttal": 893,
        "olis": 894,
        "quar": 895,
        "coun": 896,
        "osti": 897,
        "tall": 898,
        "them": 899,
        "orga": 900,
        "surv": 901,
        "scri": 902,
        "berg": 903,
        "naly": 904,
        "frig": 905,
        "amph": 906,
        "intu": 907,
        "form": 908,
        "engi": 909,
        "prof": 910,
        "aver": 911,
        "reti": 912,
        "Scho": 913,
        "supp": 914,
        "empl": 915,
        "ttra": 916,
        "nfer": 917,
        "issu": 918,
        "atri": 919,
        "prop": 920,
        "etur": 921,
        "semb": 922,
        "tter": 923,
        "ough": 924,
        "siti": 925,
        "Clar": 926,
        "fore": 927,
        "noun": 928,
        "hear": 929,
        "long": 930,
        "ontr": 931,
        "stil": 932,
        "mall": 933,
        "arti": 934,
        "trav": 935,
        "tell": 936,
        "serv": 937,
        "hous": 938,
        "scho": 939,
        "insu": 940,
        "acti": 941,
        "allow": 942,
        "celeb": 943,
        "T</w>": 944,
        "natur": 945,
        "ssemb": 946,
        "dquar": 947,
        "Markg": 948,
        "legis": 949,
        "engin": 950,
        "tolog": 951,
        "revie": 952,
        "colla": 953,
        "H</w>": 954,
        "appar": 955,
        "aptur": 956,
        "examp": 957,
        "eptem": 958,
        "J</w>": 959,
        "their": 960,
        "inter": 961,
        "liter": 962,
        "s</w>": 963,
        "chill": 964,
        "north": 965,
        "j</w>": 966,
        "a</w>": 967,
        "Ameri": 968,
        "mprov": 969,
        "relig": 970,
        "initi": 971,
        "Itali": 972,
        "E</w>": 973,
        "Ferna": 974,
        "Commo": 975,
        "withd": 976,
        "feder": 977,
        "K</w>": 978,
        "Patri": 979,
        "Under": 980,
        "ontra": 981,
        "alter": 982,
        "D</w>": 983,
        "langu": 984,
        "Arthu": 985,
        "Charl": 986,
        "power": 987,
        "denti": 988,
        "certi": 989,
        "Mader": 990,
        "Counc": 991,
        "impor": 992,
        "ositi": 993,
        "Inter": 994,
        "compa": 995,
        "destr": 996,
        "Kersh": 997,
        "super": 998,
        "itish": 999,
        "enter": 1000,
        "ficul": 1001,
        "iffer": 1002,
        "ollow": 1003,
        "colum": 1004,
        "gener": 1005,
        "succe": 1006,
        "ynthe": 1007,
        "Centr": 1008,
        "M</w>": 1009,
        "onver": 1010,
        "Storm": 1011,
        "disti": 1012,
        "overn": 1013,
        "torpe": 1014,
        "n</w>": 1015,
        "e</w>": 1016,
        "L</w>": 1017,
        "remar": 1018,
        "hikam": 1019,
        "April": 1020,
        "evacu": 1021,
        "monum": 1022,
        "nnoun": 1023,
        "publi": 1024,
        "onfer": 1025,
        "attal": 1026,
        "risti": 1027,
        "eatur": 1028,
        "Museu": 1029,
        "statu": 1030,
        "rough": 1031,
        "trans": 1032,
        "reali": 1033,
        "revol": 1034,
        "Y</w>": 1035,
        "parti": 1036,
        "f</w>": 1037,
        "perso": 1038,
        "level": 1039,
        "b</w>": 1040,
        "avail": 1041,
        "amphi": 1042,
        "d</w>": 1043,
        "south": 1044,
        "compo": 1045,
        "retur": 1046,
        "cover": 1047,
        "resul": 1048,
        "separ": 1049,
        "pyram": 1050,
        "compl": 1051,
        "intul": 1052,
        "Feder": 1053,
        "cadem": 1054,
        "progr": 1055,
        "stere": 1056,
        "oncer": 1057,
        "popul": 1058,
        "I</w>": 1059,
        "activ": 1060,
        "mater": 1061,
        "V</w>": 1062,
        "young": 1063,
        "domin": 1064,
        "manag": 1065,
        "touch": 1066,
        "atter": 1067,
        "G</w>": 1068,
        "A</w>": 1069,
        "Angel": 1070,
        "execu": 1071,
        "nsecu": 1072,
        "discu": 1073,
        "invol": 1074,
        "overl": 1075,
        "ppear": 1076,
        "F</w>": 1077,
        "bserv": 1078,
        "overs": 1079,
        "refer": 1080,
        "istri": 1081,
        "chang": 1082,
        "purch": 1083,
        "reach": 1084,
        "Austr": 1085,
        "c</w>": 1086,
        "condu": 1087,
        "under": 1088,
        "easur": 1089,
        "consu": 1090,
        "regar": 1091,
        "criti": 1092,
        "produ": 1093,
        "stall": 1094,
        "X</w>": 1095,
        "small": 1096,
        "epres": 1097,
        "S</w>": 1098,
        "Recor": 1099,
        "story": 1100,
        "devel": 1101,
        "z</w>": 1102,
        "decor": 1103,
        "olish": 1104,
        "after": 1105,
        "extra": 1106,
        "appro": 1107,
        "chair": 1108,
        "Loren": 1109,
        "N</w>": 1110,
        "ibral": 1111,
        "starr": 1112,
        "multi": 1113,
        "escri": 1114,
        "tenti": 1115,
        "eclar": 1116,
        "incre": 1117,
        "Steve": 1118,
        "Colum": 1119,
        "C</w>": 1120,
        "profe": 1121,
        "vesti": 1122,
        "pursu": 1123,
        "nomin": 1124,
        "estor": 1125,
        "centr": 1126,
        "commi": 1127,
        "Engli": 1128,
        "ender": 1129,
        "ncoun": 1130,
        "storm": 1131,
        "q</w>": 1132,
        "previ": 1133,
        "tribu": 1134,
        "analy": 1135,
        "attem": 1136,
        "ather": 1137,
        "promi": 1138,
        "o</w>": 1139,
        "deter": 1140,
        "techn": 1141,
        "memor": 1142,
        "Starr": 1143,
        "t</w>": 1144,
        "strik": 1145,
        "attra": 1146,
        "still": 1147,
        "roati": 1148,
        "ircul": 1149,
        "organ": 1150,
        "nstru": 1151,
        "ttali": 1152,
        "entur": 1153,
        "Micha": 1154,
        "Michi": 1155,
        "explo": 1156,
        "occup": 1157,
        "U</w>": 1158,
        "knowl": 1159,
        "remov": 1160,
        "P</w>": 1161,
        "schol": 1162,
        "B</w>": 1163,
        "Coldr": 1164,
        "conom": 1165,
        "k</w>": 1166,
        "commu": 1167,
        "stitu": 1168,
        "ividu": 1169,
        "depar": 1170,
        "excav": 1171,
        "Commi": 1172,
        "emplo": 1173,
        "album": 1174,
        "asual": 1175,
        "nistr": 1176,
        "conti": 1177,
        "ivers": 1178,
        "ntell": 1179,
        "contr": 1180,
        "O</w>": 1181,
        "assau": 1182,
        "y</w>": 1183,
        "gradu": 1184,
        "menti": 1185,
        "ictor": 1186,
        "ystem": 1187,
        "helic": 1188,
        "estim": 1189,
        "frequ": 1190,
        "chara": 1191,
        "Europ": 1192,
        "recor": 1193,
        "Manch": 1194,
        "R</w>": 1195,
        "quali": 1196,
        "sider": 1197,
        "pitch": 1198,
        "exhib": 1199,
        "McCar": 1200,
        "verti": 1201,
        "istor": 1202,
        "moder": 1203,
        "eolog": 1204,
        "alleg": 1205,
        "occur": 1206,
        "Memor": 1207,
        "favor": 1208,
        "p</w>": 1209,
        "to</w>": 1210,
        "ca</w>": 1211,
        "ze</w>": 1212,
        "id</w>": 1213,
        "op</w>": 1214,
        "lo</w>": 1215,
        "AR</w>": 1216,
        "prepar": 1217,
        "my</w>": 1218,
        "ef</w>": 1219,
        "theatr": 1220,
        "NY</w>": 1221,
        "nstitu": 1222,
        "ys</w>": 1223,
        "centur": 1224,
        "MS</w>": 1225,
        "GA</w>": 1226,
        "submar": 1227,
        "Croati": 1228,
        "ns</w>": 1229,
        "he</w>": 1230,
        "Victor": 1231,
        "portra": 1232,
        "interv": 1233,
        "ft</w>": 1234,
        "commis": 1235,
        "ue</w>": 1236,
        "ke</w>": 1237,
        "ea</w>": 1238,
        "develo": 1239,
        "oy</w>": 1240,
        "no</w>": 1241,
        "ch</w>": 1242,
        "experi": 1243,
        "hy</w>": 1244,
        "hrough": 1245,
        "ks</w>": 1246,
        "sa</w>": 1247,
        "corpor": 1248,
        "collap": 1249,
        "appear": 1250,
        "om</w>": 1251,
        "OT</w>": 1252,
        "au</w>": 1253,
        "al</w>": 1254,
        "va</w>": 1255,
        "ek</w>": 1256,
        "el</w>": 1257,
        "relati": 1258,
        "featur": 1259,
        "By</w>": 1260,
        "partic": 1261,
        "ep</w>": 1262,
        "nt</w>": 1263,
        "SS</w>": 1264,
        "ae</w>": 1265,
        "ip</w>": 1266,
        "promin": 1267,
        "Govern": 1268,
        "Follow": 1269,
        "st</w>": 1270,
        "ga</w>": 1271,
        "da</w>": 1272,
        "ak</w>": 1273,
        "am</w>": 1274,
        "ov</w>": 1275,
        "commer": 1276,
        "dy</w>": 1277,
        "Common": 1278,
        "ps</w>": 1279,
        "ntelli": 1280,
        "NA</w>": 1281,
        "en</w>": 1282,
        "ia</w>": 1283,
        "helico": 1284,
        "launch": 1285,
        "ry</w>": 1286,
        "on</w>": 1287,
        "co</w>": 1288,
        "achiev": 1289,
        "US</w>": 1290,
        "FC</w>": 1291,
        "ez</w>": 1292,
        "tt</w>": 1293,
        "ot</w>": 1294,
        "primar": 1295,
        "ap</w>": 1296,
        "reveal": 1297,
        "cm</w>": 1298,
        "te</w>": 1299,
        "nivers": 1300,
        "az</w>": 1301,
        "ck</w>": 1302,
        "yn</w>": 1303,
        "if</w>": 1304,
        "ho</w>": 1305,
        "ec</w>": 1306,
        "We</w>": 1307,
        "comple": 1308,
        "wn</w>": 1309,
        "lt</w>": 1310,
        "He</w>": 1311,
        "positi": 1312,
        "es</w>": 1313,
        "ob</w>": 1314,
        "improv": 1315,
        "pe</w>": 1316,
        "At</w>": 1317,
        "ty</w>": 1318,
        "amphib": 1319,
        "tz</w>": 1320,
        "identi": 1321,
        "ow</w>": 1322,
        "attali": 1323,
        "ve</w>": 1324,
        "up</w>": 1325,
        "increa": 1326,
        "ha</w>": 1327,
        "ya</w>": 1328,
        "an</w>": 1329,
        "On</w>": 1330,
        "Counci": 1331,
        "ol</w>": 1332,
        "ff</w>": 1333,
        "ay</w>": 1334,
        "fe</w>": 1335,
        "ey</w>": 1336,
        "ok</w>": 1337,
        "as</w>": 1338,
        "patter": 1339,
        "It</w>": 1340,
        "nsider": 1341,
        "alleng": 1342,
        "io</w>": 1343,
        "onstru": 1344,
        "ws</w>": 1345,
        "Kersha": 1346,
        "or</w>": 1347,
        "oe</w>": 1348,
        "dn</w>": 1349,
        "de</w>": 1350,
        "er</w>": 1351,
        "nn</w>": 1352,
        "UB</w>": 1353,
        "observ": 1354,
        "batter": 1355,
        "NL</w>": 1356,
        "arrang": 1357,
        "od</w>": 1358,
        "ra</w>": 1359,
        "Septem": 1360,
        "distin": 1361,
        "Markgr": 1362,
        "cs</w>": 1363,
        "us</w>": 1364,
        "suppor": 1365,
        "oo</w>": 1366,
        "ik</w>": 1367,
        "nd</w>": 1368,
        "In</w>": 1369,
        "econom": 1370,
        "TV</w>": 1371,
        "announ": 1372,
        "rt</w>": 1373,
        "pt</w>": 1374,
        "gs</w>": 1375,
        "ls</w>": 1376,
        "politi": 1377,
        "synthe": 1378,
        "SA</w>": 1379,
        "instru": 1380,
        "fy</w>": 1381,
        "na</w>": 1382,
        "distri": 1383,
        "ex</w>": 1384,
        "charac": 1385,
        "ma</w>": 1386,
        "hristi": 1387,
        "descri": 1388,
        "sy</w>": 1389,
        "An</w>": 1390,
        "critic": 1391,
        "contra": 1392,
        "Arthur": 1393,
        "at</w>": 1394,
        "ne</w>": 1395,
        "HL</w>": 1396,
        "by</w>": 1397,
        "cy</w>": 1398,
        "nvesti": 1399,
        "BC</w>": 1400,
        "hn</w>": 1401,
        "ht</w>": 1402,
        "victor": 1403,
        "ee</w>": 1404,
        "repres": 1405,
        "ss</w>": 1406,
        "captur": 1407,
        "withdr": 1408,
        "Shikam": 1409,
        "rs</w>": 1410,
        "un</w>": 1411,
        "it</w>": 1412,
        "practi": 1413,
        "BA</w>": 1414,
        "pa</w>": 1415,
        "ds</w>": 1416,
        "eo</w>": 1417,
        "ny</w>": 1418,
        "os</w>": 1419,
        "is</w>": 1420,
        "archit": 1421,
        "dividu": 1422,
        "th</w>": 1423,
        "succes": 1424,
        "concer": 1425,
        "intulu": 1426,
        "bs</w>": 1427,
        "RA</w>": 1428,
        "surrou": 1429,
        "Hu</w>": 1430,
        "Egypti": 1431,
        "follow": 1432,
        "fs</w>": 1433,
        "conver": 1434,
        "et</w>": 1435,
        "No</w>": 1436,
        "so</w>": 1437,
        "in</w>": 1438,
        "review": 1439,
        "St</w>": 1440,
        "gn</w>": 1441,
        "ce</w>": 1442,
        "proper": 1443,
        "II</w>": 1444,
        "believ": 1445,
        "schedu": 1446,
        "otenti": 1447,
        "eventu": 1448,
        "rd</w>": 1449,
        "we</w>": 1450,
        "ms</w>": 1451,
        "gy</w>": 1452,
        "zo</w>": 1453,
        "ub</w>": 1454,
        "go</w>": 1455,
        "circul": 1456,
        "af</w>": 1457,
        "Englis": 1458,
        "ge</w>": 1459,
        "za</w>": 1460,
        "ba</w>": 1461,
        "fficul": 1462,
        "Caroli": 1463,
        "system": 1464,
        "ag</w>": 1465,
        "sk</w>": 1466,
        "organi": 1467,
        "strong": 1468,
        "ad</w>": 1469,
        "histor": 1470,
        "ka</w>": 1471,
        "of</w>": 1472,
        "encoun": 1473,
        "tempor": 1474,
        "MA</w>": 1475,
        "La</w>": 1476,
        "ta</w>": 1477,
        "be</w>": 1478,
        "destro": 1479,
        "ld</w>": 1480,
        "ntolog": 1481,
        "AF</w>": 1482,
        "govern": 1483,
        "ye</w>": 1484,
        "AD</w>": 1485,
        "AA</w>": 1486,
        "profes": 1487,
        "wa</w>": 1488,
        "UK</w>": 1489,
        "strike": 1490,
        "Gibral": 1491,
        "ic</w>": 1492,
        "inistr": 1493,
        "ed</w>": 1494,
        "compar": 1495,
        "ly</w>": 1496,
        "ie</w>": 1497,
        "le</w>": 1498,
        "ct</w>": 1499,
        "re</w>": 1500,
        "ar</w>": 1501,
        "As</w>": 1502,
        "Museum": 1503,
        "commun": 1504,
        "ro</w>": 1505,
        "determ": 1506,
        "Histor": 1507,
        "epubli": 1508,
        "hs</w>": 1509,
        "adquar": 1510,
        "nstall": 1511,
        "CR</w>": 1512,
        "la</w>": 1513,
        "me</w>": 1514,
        "Academ": 1515,
        "do</w>": 1516,
        "se</w>": 1517,
        "To</w>": 1518,
        "ng</w>": 1519,
        "wo</w>": 1520,
        "py</w>": 1521,
        "dd</w>": 1522,
        "nk</w>": 1523,
        "ccompa": 1524,
        "ac</w>": 1525,
        "ts</w>": 1526,
        "ky</w>": 1527,
        "restor": 1528,
        "differ": 1529,
        "ncentr": 1530,
        "declar": 1531,
        "assemb": 1532,
        "son</w>": 1533,
        "non</w>": 1534,
        "pal</w>": 1535,
        "yan</w>": 1536,
        "ues</w>": 1537,
        "oad</w>": 1538,
        "ngs</w>": 1539,
        "ife</w>": 1540,
        "ean</w>": 1541,
        "dia</w>": 1542,
        "cey</w>": 1543,
        "sco</w>": 1544,
        "zon</w>": 1545,
        "the</w>": 1546,
        "oor</w>": 1547,
        "ced</w>": 1548,
        "ics</w>": 1549,
        "ony</w>": 1550,
        "per</w>": 1551,
        "ole</w>": 1552,
        "aff</w>": 1553,
        "con</w>": 1554,
        "lor</w>": 1555,
        "der</w>": 1556,
        "The</w>": 1557,
        "ffe</w>": 1558,
        "ege</w>": 1559,
        "ict</w>": 1560,
        "ona</w>": 1561,
        "ama</w>": 1562,
        "nly</w>": 1563,
        "nte</w>": 1564,
        "tle</w>": 1565,
        "rch</w>": 1566,
        "tch</w>": 1567,
        "can</w>": 1568,
        "ant</w>": 1569,
        "program": 1570,
        "ery</w>": 1571,
        "perform": 1572,
        "eep</w>": 1573,
        "els</w>": 1574,
        "ham</w>": 1575,
        "through": 1576,
        "mor</w>": 1577,
        "his</w>": 1578,
        "end</w>": 1579,
        "ame</w>": 1580,
        "len</w>": 1581,
        "ads</w>": 1582,
        "eas</w>": 1583,
        "ead</w>": 1584,
        "lic</w>": 1585,
        "ule</w>": 1586,
        "ode</w>": 1587,
        "oth</w>": 1588,
        "CAA</w>": 1589,
        "iva</w>": 1590,
        "cer</w>": 1591,
        "ree</w>": 1592,
        "oys</w>": 1593,
        "ved</w>": 1594,
        "aka</w>": 1595,
        "got</w>": 1596,
        "She</w>": 1597,
        "iel</w>": 1598,
        "ler</w>": 1599,
        "oes</w>": 1600,
        "art</w>": 1601,
        "bia</w>": 1602,
        "uns</w>": 1603,
        "hes</w>": 1604,
        "oss</w>": 1605,
        "pon</w>": 1606,
        "hot</w>": 1607,
        "ees</w>": 1608,
        "hey</w>": 1609,
        "ove</w>": 1610,
        "ise</w>": 1611,
        "nny</w>": 1612,
        "aza</w>": 1613,
        "oks</w>": 1614,
        "ive</w>": 1615,
        "ots</w>": 1616,
        "nda</w>": 1617,
        "ach</w>": 1618,
        "ors</w>": 1619,
        "ful</w>": 1620,
        "day</w>": 1621,
        "ore</w>": 1622,
        "ple</w>": 1623,
        "ges</w>": 1624,
        "competi": 1625,
        "ses</w>": 1626,
        "nel</w>": 1627,
        "asy</w>": 1628,
        "ope</w>": 1629,
        "ite</w>": 1630,
        "fly</w>": 1631,
        "tic</w>": 1632,
        "ice</w>": 1633,
        "nds</w>": 1634,
        "ade</w>": 1635,
        "rus</w>": 1636,
        "ask</w>": 1637,
        "ott</w>": 1638,
        "med</w>": 1639,
        "nce</w>": 1640,
        "success": 1641,
        "ths</w>": 1642,
        "ith</w>": 1643,
        "nse</w>": 1644,
        "lle</w>": 1645,
        "End</w>": 1646,
        "van</w>": 1647,
        "ers</w>": 1648,
        "ked</w>": 1649,
        "via</w>": 1650,
        "nch</w>": 1651,
        "Bob</w>": 1652,
        "dez</w>": 1653,
        "ept</w>": 1654,
        "ven</w>": 1655,
        "mid</w>": 1656,
        "far</w>": 1657,
        "lms</w>": 1658,
        "ars</w>": 1659,
        "run</w>": 1660,
        "ock</w>": 1661,
        "eat</w>": 1662,
        "itt</w>": 1663,
        "did</w>": 1664,
        "for</w>": 1665,
        "dor</w>": 1666,
        "ply</w>": 1667,
        "ets</w>": 1668,
        "ans</w>": 1669,
        "JMA</w>": 1670,
        "ent</w>": 1671,
        "ood</w>": 1672,
        "cal</w>": 1673,
        "oal</w>": 1674,
        "San</w>": 1675,
        "ber</w>": 1676,
        "ein</w>": 1677,
        "eme</w>": 1678,
        "ums</w>": 1679,
        "lls</w>": 1680,
        "era</w>": 1681,
        "les</w>": 1682,
        "ire</w>": 1683,
        "see</w>": 1684,
        "hed</w>": 1685,
        "pes</w>": 1686,
        "His</w>": 1687,
        "res</w>": 1688,
        "kes</w>": 1689,
        "ims</w>": 1690,
        "lot</w>": 1691,
        "Bay</w>": 1692,
        "ffs</w>": 1693,
        "nty</w>": 1694,
        "nes</w>": 1695,
        "ohn</w>": 1696,
        "die</w>": 1697,
        "yer</w>": 1698,
        "ied</w>": 1699,
        "ack</w>": 1700,
        "intervi": 1701,
        "ned</w>": 1702,
        "All</w>": 1703,
        "dle</w>": 1704,
        "oid</w>": 1705,
        "iss</w>": 1706,
        "rom</w>": 1707,
        "nar</w>": 1708,
        "who</w>": 1709,
        "ifficul": 1710,
        "bel</w>": 1711,
        "ind</w>": 1712,
        "ine</w>": 1713,
        "ime</w>": 1714,
        "ain</w>": 1715,
        "tan</w>": 1716,
        "ell</w>": 1717,
        "ong</w>": 1718,
        "nor</w>": 1719,
        "rst</w>": 1720,
        "ary</w>": 1721,
        "awn</w>": 1722,
        "tar</w>": 1723,
        "ude</w>": 1724,
        "dea</w>": 1725,
        "ana</w>": 1726,
        "dio</w>": 1727,
        "Republi": 1728,
        "man</w>": 1729,
        "mal</w>": 1730,
        "yes</w>": 1731,
        "sal</w>": 1732,
        "Fey</w>": 1733,
        "hom</w>": 1734,
        "hic</w>": 1735,
        "Red</w>": 1736,
        "AAF</w>": 1737,
        "fth</w>": 1738,
        "ops</w>": 1739,
        "nry</w>": 1740,
        "ton</w>": 1741,
        "dly</w>": 1742,
        "USA</w>": 1743,
        "ono</w>": 1744,
        "wly</w>": 1745,
        "nia</w>": 1746,
        "own</w>": 1747,
        "ete</w>": 1748,
        "ere</w>": 1749,
        "bed</w>": 1750,
        "Kershaw": 1751,
        "ker</w>": 1752,
        "ten</w>": 1753,
        "eed</w>": 1754,
        "pre</w>": 1755,
        "lan</w>": 1756,
        "its</w>": 1757,
        "sit</w>": 1758,
        "ews</w>": 1759,
        "ook</w>": 1760,
        "eds</w>": 1761,
        "ane</w>": 1762,
        "nto</w>": 1763,
        "ids</w>": 1764,
        "entolog": 1765,
        "ave</w>": 1766,
        "een</w>": 1767,
        "ose</w>": 1768,
        "phy</w>": 1769,
        "ken</w>": 1770,
        "May</w>": 1771,
        "ris</w>": 1772,
        "bit</w>": 1773,
        "Council": 1774,
        "nna</w>": 1775,
        "all</w>": 1776,
        "out</w>": 1777,
        "oll</w>": 1778,
        "You</w>": 1779,
        "one</w>": 1780,
        "Ali</w>": 1781,
        "ank</w>": 1782,
        "Los</w>": 1783,
        "ial</w>": 1784,
        "yet</w>": 1785,
        "eth</w>": 1786,
        "ich</w>": 1787,
        "off</w>": 1788,
        "TNA</w>": 1789,
        "English": 1790,
        "ministr": 1791,
        "ody</w>": 1792,
        "ief</w>": 1793,
        "eel</w>": 1794,
        "now</w>": 1795,
        "bar</w>": 1796,
        "est</w>": 1797,
        "red</w>": 1798,
        "NBA</w>": 1799,
        "and</w>": 1800,
        "nts</w>": 1801,
        "yls</w>": 1802,
        "ada</w>": 1803,
        "way</w>": 1804,
        "introdu": 1805,
        "ver</w>": 1806,
        "chi</w>": 1807,
        "ips</w>": 1808,
        "onstitu": 1809,
        "ast</w>": 1810,
        "acy</w>": 1811,
        "ael</w>": 1812,
        "lin</w>": 1813,
        "low</w>": 1814,
        "ats</w>": 1815,
        "fit</w>": 1816,
        "Her</w>": 1817,
        "row</w>": 1818,
        "let</w>": 1819,
        "ady</w>": 1820,
        "lay</w>": 1821,
        "Christi": 1822,
        "cut</w>": 1823,
        "problem": 1824,
        "pts</w>": 1825,
        "key</w>": 1826,
        "ncy</w>": 1827,
        "hen</w>": 1828,
        "has</w>": 1829,
        "ica</w>": 1830,
        "withdra": 1831,
        "eal</w>": 1832,
        "sek</w>": 1833,
        "eet</w>": 1834,
        "ban</w>": 1835,
        "ile</w>": 1836,
        "han</w>": 1837,
        "oot</w>": 1838,
        "say</w>": 1839,
        "ado</w>": 1840,
        "hip</w>": 1841,
        "tor</w>": 1842,
        "ear</w>": 1843,
        "set</w>": 1844,
        "ale</w>": 1845,
        "helicop": 1846,
        "continu": 1847,
        "Sea</w>": 1848,
        "due</w>": 1849,
        "ney</w>": 1850,
        "ype</w>": 1851,
        "commiss": 1852,
        "ima</w>": 1853,
        "ity</w>": 1854,
        "put</w>": 1855,
        "zed</w>": 1856,
        "met</w>": 1857,
        "but</w>": 1858,
        "But</w>": 1859,
        "any</w>": 1860,
        "bly</w>": 1861,
        "ble</w>": 1862,
        "aps</w>": 1863,
        "ety</w>": 1864,
        "sor</w>": 1865,
        "ink</w>": 1866,
        "ila</w>": 1867,
        "ust</w>": 1868,
        "tal</w>": 1869,
        "ake</w>": 1870,
        "sen</w>": 1871,
        "ang</w>": 1872,
        "lub</w>": 1873,
        "god</w>": 1874,
        "fer</w>": 1875,
        "kly</w>": 1876,
        "ger</w>": 1877,
        "ndo</w>": 1878,
        "irs</w>": 1879,
        "onsider": 1880,
        "ket</w>": 1881,
        "too</w>": 1882,
        "aul</w>": 1883,
        "hia</w>": 1884,
        "eck</w>": 1885,
        "ilometr": 1886,
        "nic</w>": 1887,
        "was</w>": 1888,
        "tom</w>": 1889,
        "rey</w>": 1890,
        "ves</w>": 1891,
        "ase</w>": 1892,
        "eks</w>": 1893,
        "ped</w>": 1894,
        "ght</w>": 1895,
        "hat</w>": 1896,
        "bus</w>": 1897,
        "llo</w>": 1898,
        "ick</w>": 1899,
        "HMS</w>": 1900,
        "tes</w>": 1901,
        "ide</w>": 1902,
        "ega</w>": 1903,
        "sea</w>": 1904,
        "wed</w>": 1905,
        "men</w>": 1906,
        "des</w>": 1907,
        "kie</w>": 1908,
        "tee</w>": 1909,
        "oncentr": 1910,
        "eadquar": 1911,
        "ece</w>": 1912,
        "ter</w>": 1913,
        "archite": 1914,
        "nvestig": 1915,
        "nan</w>": 1916,
        "kin</w>": 1917,
        "ior</w>": 1918,
        "com</w>": 1919,
        "eye</w>": 1920,
        "ded</w>": 1921,
        "strateg": 1922,
        "ape</w>": 1923,
        "wan</w>": 1924,
        "act</w>": 1925,
        "las</w>": 1926,
        "fic</w>": 1927,
        "she</w>": 1928,
        "ano</w>": 1929,
        "nit</w>": 1930,
        "her</w>": 1931,
        "kal</w>": 1932,
        "get</w>": 1933,
        "ser</w>": 1934,
        "aya</w>": 1935,
        "constru": 1936,
        "ius</w>": 1937,
        "ize</w>": 1938,
        "ote</w>": 1939,
        "ory</w>": 1940,
        "UFC</w>": 1941,
        "tte</w>": 1942,
        "rmy</w>": 1943,
        "ens</w>": 1944,
        "cus</w>": 1945,
        "sts</w>": 1946,
        "jor</w>": 1947,
        "mit</w>": 1948,
        "ace</w>": 1949,
        "war</w>": 1950,
        "Ten</w>": 1951,
        "sin</w>": 1952,
        "net</w>": 1953,
        "partici": 1954,
        "gns</w>": 1955,
        "oin</w>": 1956,
        "deo</w>": 1957,
        "aws</w>": 1958,
        "lam</w>": 1959,
        "dom</w>": 1960,
        "win</w>": 1961,
        "uch</w>": 1962,
        "lad</w>": 1963,
        "sty</w>": 1964,
        "ged</w>": 1965,
        "osa</w>": 1966,
        "val</w>": 1967,
        "als</w>": 1968,
        "ndy</w>": 1969,
        "age</w>": 1970,
        "For</w>": 1971,
        "eer</w>": 1972,
        "dow</w>": 1973,
        "ndividu": 1974,
        "ted</w>": 1975,
        "oke</w>": 1976,
        "old</w>": 1977,
        "sas</w>": 1978,
        "ass</w>": 1979,
        "cemeter": 1980,
        "are</w>": 1981,
        "aid</w>": 1982,
        "sed</w>": 1983,
        "mer</w>": 1984,
        "WWE</w>": 1985,
        "Day</w>": 1986,
        "nst</w>": 1987,
        "eak</w>": 1988,
        "try</w>": 1989,
        "mas</w>": 1990,
        "nal</w>": 1991,
        "ech</w>": 1992,
        "not</w>": 1993,
        "tly</w>": 1994,
        "mes</w>": 1995,
        "ift</w>": 1996,
        "ate</w>": 1997,
        "ene</w>": 1998,
        "lue</w>": 1999,
        "ods</w>": 2000,
        "ran</w>": 2001,
        "hop</w>": 2002,
        "ese</w>": 2003,
        "bes</w>": 2004,
        "install": 2005,
        "One</w>": 2006,
        "hly</w>": 2007,
        "ous</w>": 2008,
        "ess</w>": 2009,
        "ing</w>": 2010,
        "our</w>": 2011,
        "gue</w>": 2012,
        "ond</w>": 2013,
        "tts</w>": 2014,
        "int</w>": 2015,
        "War</w>": 2016,
        "sky</w>": 2017,
        "dge</w>": 2018,
        "hts</w>": 2019,
        "nta</w>": 2020,
        "gan</w>": 2021,
        "you</w>": 2022,
        "ren</w>": 2023,
        "led</w>": 2024,
        "sia</w>": 2025,
        "eek</w>": 2026,
        "cle</w>": 2027,
        "oon</w>": 2028,
        "xth</w>": 2029,
        "ure</w>": 2030,
        "ect</w>": 2031,
        "subsequ": 2032,
        "ies</w>": 2033,
        "eon</w>": 2034,
        "yle</w>": 2035,
        "que</w>": 2036,
        "had</w>": 2037,
        "eft</w>": 2038,
        "lla</w>": 2039,
        "III</w>": 2040,
        "cap</w>": 2041,
        "deliver": 2042,
        "aft</w>": 2043,
        "den</w>": 2044,
        "ols</w>": 2045,
        "ier</w>": 2046,
        "ist</w>": 2047,
        "ria</w>": 2048,
        "potenti": 2049,
        "cky</w>": 2050,
        "thy</w>": 2051,
        "ssy</w>": 2052,
        "sic</w>": 2053,
        "yed</w>": 2054,
        "ata</w>": 2055,
        "ird</w>": 2056,
        "san</w>": 2057,
        "ool</w>": 2058,
        "top</w>": 2059,
        "Its</w>": 2060,
        "use</w>": 2061,
        "ign</w>": 2062,
        "tel</w>": 2063,
        "cts</w>": 2064,
        "eam</w>": 2065,
        "ext</w>": 2066,
        "two</w>": 2067,
        "ena</w>": 2068,
        "ins</w>": 2069,
        "ina</w>": 2070,
        "ork</w>": 2071,
        "ard</w>": 2072,
        "ago</w>": 2073,
        "xed</w>": 2074,
        "ily</w>": 2075,
        "ral</w>": 2076,
        "pop</w>": 2077,
        "ino</w>": 2078,
        "yal</w>": 2079,
        "aru</w>": 2080,
        "ost</w>": 2081,
        "ian</w>": 2082,
        "ola</w>": 2083,
        "gun</w>": 2084,
        "don</w>": 2085,
        "pel</w>": 2086,
        "iam</w>": 2087,
        "sel</w>": 2088,
        "ath</w>": 2089,
        "car</w>": 2090,
        "won</w>": 2091,
        "oat</w>": 2092,
        "ont</w>": 2093,
        "ome</w>": 2094,
        "ray</w>": 2095,
        "sis</w>": 2096,
        "pen</w>": 2097,
        "ely</w>": 2098,
        "lar</w>": 2099,
        "hit</w>": 2100,
        "ons</w>": 2101,
        "represe": 2102,
        "Through": 2103,
        "nth</w>": 2104,
        "pan</w>": 2105,
        "ron</w>": 2106,
        "ner</w>": 2107,
        "nks</w>": 2108,
        "mec</w>": 2109,
        "ion</w>": 2110,
        "oom</w>": 2111,
        "ike</w>": 2112,
        "ils</w>": 2113,
        "how</w>": 2114,
        "arm</w>": 2115,
        "ley</w>": 2116,
        "Two</w>": 2117,
        "may</w>": 2118,
        "ays</w>": 2119,
        "fan</w>": 2120,
        "bor</w>": 2121,
        "cks</w>": 2122,
        "ces</w>": 2123,
        "nion</w>": 2124,
        "runs</w>": 2125,
        "vice</w>": 2126,
        "eech</w>": 2127,
        "nked</w>": 2128,
        "with</w>": 2129,
        "ware</w>": 2130,
        "hore</w>": 2131,
        "iven</w>": 2132,
        "teen</w>": 2133,
        "face</w>": 2134,
        "them</w>": 2135,
        "ours</w>": 2136,
        "eals</w>": 2137,
        "nied</w>": 2138,
        "idea</w>": 2139,
        "five</w>": 2140,
        "ddie</w>": 2141,
        "eing</w>": 2142,
        "adio</w>": 2143,
        "hest</w>": 2144,
        "oyed</w>": 2145,
        "ocal</w>": 2146,
        "ssic</w>": 2147,
        "bout</w>": 2148,
        "ison</w>": 2149,
        "vely</w>": 2150,
        "tact</w>": 2151,
        "cies</w>": 2152,
        "stic</w>": 2153,
        "oice</w>": 2154,
        "imes</w>": 2155,
        "sode</w>": 2156,
        "took</w>": 2157,
        "ater</w>": 2158,
        "hief</w>": 2159,
        "rand</w>": 2160,
        "what</w>": 2161,
        "They</w>": 2162,
        "asty</w>": 2163,
        "ital</w>": 2164,
        "oats</w>": 2165,
        "ably</w>": 2166,
        "some</w>": 2167,
        "cast</w>": 2168,
        "gets</w>": 2169,
        "both</w>": 2170,
        "bank</w>": 2171,
        "lass</w>": 2172,
        "gned</w>": 2173,
        "love</w>": 2174,
        "rely</w>": 2175,
        "type</w>": 2176,
        "acre</w>": 2177,
        "eave</w>": 2178,
        "tand</w>": 2179,
        "anal</w>": 2180,
        "tate</w>": 2181,
        "ants</w>": 2182,
        "ries</w>": 2183,
        "Type</w>": 2184,
        "liam</w>": 2185,
        "ilms</w>": 2186,
        "dded</w>": 2187,
        "eats</w>": 2188,
        "ould</w>": 2189,
        "eter</w>": 2190,
        "says</w>": 2191,
        "ddle</w>": 2192,
        "oses</w>": 2193,
        "date</w>": 2194,
        "gold</w>": 2195,
        "kets</w>": 2196,
        "oday</w>": 2197,
        "enty</w>": 2198,
        "Some</w>": 2199,
        "cane</w>": 2200,
        "pent</w>": 2201,
        "dary</w>": 2202,
        "dson</w>": 2203,
        "ique</w>": 2204,
        "rose</w>": 2205,
        "down</w>": 2206,
        "hree</w>": 2207,
        "song</w>": 2208,
        "ones</w>": 2209,
        "from</w>": 2210,
        "lads</w>": 2211,
        "into</w>": 2212,
        "iver</w>": 2213,
        "pies</w>": 2214,
        "intervie": 2215,
        "nary</w>": 2216,
        "sure</w>": 2217,
        "ance</w>": 2218,
        "nnel</w>": 2219,
        "yers</w>": 2220,
        "rest</w>": 2221,
        "gure</w>": 2222,
        "lage</w>": 2223,
        "club</w>": 2224,
        "eads</w>": 2225,
        "wind</w>": 2226,
        "tles</w>": 2227,
        "mage</w>": 2228,
        "such</w>": 2229,
        "ture</w>": 2230,
        "ened</w>": 2231,
        "dent</w>": 2232,
        "eams</w>": 2233,
        "sign</w>": 2234,
        "lear</w>": 2235,
        "aims</w>": 2236,
        "that</w>": 2237,
        "ndes</w>": 2238,
        "loss</w>": 2239,
        "nate</w>": 2240,
        "ilot</w>": 2241,
        "fied</w>": 2242,
        "Maya</w>": 2243,
        "tein</w>": 2244,
        "tons</w>": 2245,
        "over</w>": 2246,
        "cant</w>": 2247,
        "make</w>": 2248,
        "nits</w>": 2249,
        "imal</w>": 2250,
        "ntry</w>": 2251,
        "bove</w>": 2252,
        "deck</w>": 2253,
        "ider</w>": 2254,
        "raft</w>": 2255,
        "deal</w>": 2256,
        "Park</w>": 2257,
        "andy</w>": 2258,
        "this</w>": 2259,
        "ator</w>": 2260,
        "eted</w>": 2261,
        "tant</w>": 2262,
        "road</w>": 2263,
        "list</w>": 2264,
        "July</w>": 2265,
        "each</w>": 2266,
        "oads</w>": 2267,
        "roke</w>": 2268,
        "nila</w>": 2269,
        "free</w>": 2270,
        "rown</w>": 2271,
        "airs</w>": 2272,
        "fire</w>": 2273,
        "acts</w>": 2274,
        "nces</w>": 2275,
        "nald</w>": 2276,
        "lood</w>": 2277,
        "sage</w>": 2278,
        "This</w>": 2279,
        "ived</w>": 2280,
        "etic</w>": 2281,
        "sted</w>": 2282,
        "investig": 2283,
        "hole</w>": 2284,
        "tour</w>": 2285,
        "ford</w>": 2286,
        "dges</w>": 2287,
        "ials</w>": 2288,
        "hile</w>": 2289,
        "take</w>": 2290,
        "enth</w>": 2291,
        "same</w>": 2292,
        "iers</w>": 2293,
        "ling</w>": 2294,
        "bury</w>": 2295,
        "agan</w>": 2296,
        "lian</w>": 2297,
        "good</w>": 2298,
        "just</w>": 2299,
        "arch</w>": 2300,
        "felt</w>": 2301,
        "Bond</w>": 2302,
        "feet</w>": 2303,
        "tage</w>": 2304,
        "cals</w>": 2305,
        "onic</w>": 2306,
        "lans</w>": 2307,
        "oing</w>": 2308,
        "From</w>": 2309,
        "soon</w>": 2310,
        "head</w>": 2311,
        "sity</w>": 2312,
        "nder</w>": 2313,
        "open</w>": 2314,
        "aded</w>": 2315,
        "shed</w>": 2316,
        "kson</w>": 2317,
        "cted</w>": 2318,
        "star</w>": 2319,
        "ests</w>": 2320,
        "cost</w>": 2321,
        "snar</w>": 2322,
        "iffe</w>": 2323,
        "anta</w>": 2324,
        "ence</w>": 2325,
        "ease</w>": 2326,
        "ooks</w>": 2327,
        "City</w>": 2328,
        "onor</w>": 2329,
        "ased</w>": 2330,
        "ions</w>": 2331,
        "pers</w>": 2332,
        "pear</w>": 2333,
        "ints</w>": 2334,
        "gade</w>": 2335,
        "sing</w>": 2336,
        "ogue</w>": 2337,
        "iate</w>": 2338,
        "fall</w>": 2339,
        "inal</w>": 2340,
        "sold</w>": 2341,
        "omen</w>": 2342,
        "hand</w>": 2343,
        "days</w>": 2344,
        "foot</w>": 2345,
        "poor</w>": 2346,
        "hips</w>": 2347,
        "iece</w>": 2348,
        "lmec</w>": 2349,
        "ious</w>": 2350,
        "tent</w>": 2351,
        "anti</w>": 2352,
        "ains</w>": 2353,
        "seen</w>": 2354,
        "cers</w>": 2355,
        "body</w>": 2356,
        "west</w>": 2357,
        "inst</w>": 2358,
        "iety</w>": 2359,
        "whom</w>": 2360,
        "Gore</w>": 2361,
        "Lake</w>": 2362,
        "cene</w>": 2363,
        "itor</w>": 2364,
        "Australi": 2365,
        "concentr": 2366,
        "nous</w>": 2367,
        "hite</w>": 2368,
        "eets</w>": 2369,
        "lost</w>": 2370,
        "oach</w>": 2371,
        "iser</w>": 2372,
        "ndez</w>": 2373,
        "ging</w>": 2374,
        "shot</w>": 2375,
        "ells</w>": 2376,
        "htly</w>": 2377,
        "hing</w>": 2378,
        "tion</w>": 2379,
        "taff</w>": 2380,
        "they</w>": 2381,
        "fans</w>": 2382,
        "case</w>": 2383,
        "full</w>": 2384,
        "lain</w>": 2385,
        "nand</w>": 2386,
        "site</w>": 2387,
        "nted</w>": 2388,
        "laid</w>": 2389,
        "usic</w>": 2390,
        "ebut</w>": 2391,
        "bing</w>": 2392,
        "ying</w>": 2393,
        "past</w>": 2394,
        "send</w>": 2395,
        "ming</w>": 2396,
        "pons</w>": 2397,
        "ored</w>": 2398,
        "tain</w>": 2399,
        "aper</w>": 2400,
        "With</w>": 2401,
        "ente</w>": 2402,
        "nned</w>": 2403,
        "ised</w>": 2404,
        "mall</w>": 2405,
        "come</w>": 2406,
        "eeks</w>": 2407,
        "kilometr": 2408,
        "apan</w>": 2409,
        "shes</w>": 2410,
        "cing</w>": 2411,
        "aged</w>": 2412,
        "Both</w>": 2413,
        "nist</w>": 2414,
        "does</w>": 2415,
        "Tour</w>": 2416,
        "ghly</w>": 2417,
        "dian</w>": 2418,
        "cent</w>": 2419,
        "nius</w>": 2420,
        "ects</w>": 2421,
        "eded</w>": 2422,
        "Hall</w>": 2423,
        "went</w>": 2424,
        "dren</w>": 2425,
        "nent</w>": 2426,
        "ames</w>": 2427,
        "boat</w>": 2428,
        "room</w>": 2429,
        "Rock</w>": 2430,
        "lace</w>": 2431,
        "ille</w>": 2432,
        "sary</w>": 2433,
        "iter</w>": 2434,
        "hiva</w>": 2435,
        "edly</w>": 2436,
        "ring</w>": 2437,
        "cian</w>": 2438,
        "pper</w>": 2439,
        "ayer</w>": 2440,
        "lity</w>": 2441,
        "Many</w>": 2442,
        "ined</w>": 2443,
        "used</w>": 2444,
        "many</w>": 2445,
        "ntly</w>": 2446,
        "reat</w>": 2447,
        "ston</w>": 2448,
        "iral</w>": 2449,
        "pact</w>": 2450,
        "wood</w>": 2451,
        "aton</w>": 2452,
        "arms</w>": 2453,
        "onal</w>": 2454,
        "June</w>": 2455,
        "rary</w>": 2456,
        "assy</w>": 2457,
        "wall</w>": 2458,
        "ndia</w>": 2459,
        "team</w>": 2460,
        "ping</w>": 2461,
        "main</w>": 2462,
        "rate</w>": 2463,
        "ound</w>": 2464,
        "ixth</w>": 2465,
        "year</w>": 2466,
        "ired</w>": 2467,
        "ness</w>": 2468,
        "ship</w>": 2469,
        "udes</w>": 2470,
        "give</w>": 2471,
        "work</w>": 2472,
        "well</w>": 2473,
        "like</w>": 2474,
        "Paul</w>": 2475,
        "oned</w>": 2476,
        "move</w>": 2477,
        "onds</w>": 2478,
        "idly</w>": 2479,
        "need</w>": 2480,
        "eces</w>": 2481,
        "urch</w>": 2482,
        "tled</w>": 2483,
        "tyle</w>": 2484,
        "deep</w>": 2485,
        "Four</w>": 2486,
        "represen": 2487,
        "otal</w>": 2488,
        "Navy</w>": 2489,
        "cean</w>": 2490,
        "guns</w>": 2491,
        "vine</w>": 2492,
        "ther</w>": 2493,
        "dministr": 2494,
        "demonstr": 2495,
        "ally</w>": 2496,
        "cept</w>": 2497,
        "ense</w>": 2498,
        "iled</w>": 2499,
        "uman</w>": 2500,
        "outh</w>": 2501,
        "aker</w>": 2502,
        "done</w>": 2503,
        "able</w>": 2504,
        "ards</w>": 2505,
        "upon</w>": 2506,
        "ough</w>": 2507,
        "hose</w>": 2508,
        "near</w>": 2509,
        "died</w>": 2510,
        "sive</w>": 2511,
        "tted</w>": 2512,
        "inch</w>": 2513,
        "igns</w>": 2514,
        "acon</w>": 2515,
        "hind</w>": 2516,
        "oked</w>": 2517,
        "cked</w>": 2518,
        "fort</w>": 2519,
        "ewly</w>": 2520,
        "acks</w>": 2521,
        "turn</w>": 2522,
        "oken</w>": 2523,
        "bert</w>": 2524,
        "iron</w>": 2525,
        "self</w>": 2526,
        "nsas</w>": 2527,
        "ides</w>": 2528,
        "eers</w>": 2529,
        "RAAF</w>": 2530,
        "ices</w>": 2531,
        "King</w>": 2532,
        "rner</w>": 2533,
        "ands</w>": 2534,
        "nese</w>": 2535,
        "ited</w>": 2536,
        "much</w>": 2537,
        "ason</w>": 2538,
        "rank</w>": 2539,
        "told</w>": 2540,
        "ills</w>": 2541,
        "ails</w>": 2542,
        "post</w>": 2543,
        "hich</w>": 2544,
        "back</w>": 2545,
        "wing</w>": 2546,
        "Mark</w>": 2547,
        "nior</w>": 2548,
        "lant</w>": 2549,
        "cape</w>": 2550,
        "iner</w>": 2551,
        "rect</w>": 2552,
        "lots</w>": 2553,
        "bers</w>": 2554,
        "late</w>": 2555,
        "peak</w>": 2556,
        "rote</w>": 2557,
        "pted</w>": 2558,
        "ings</w>": 2559,
        "eans</w>": 2560,
        "uded</w>": 2561,
        "once</w>": 2562,
        "rder</w>": 2563,
        "lude</w>": 2564,
        "pain</w>": 2565,
        "also</w>": 2566,
        "Jack</w>": 2567,
        "lion</w>": 2568,
        "ideo</w>": 2569,
        "territor": 2570,
        "pace</w>": 2571,
        "fers</w>": 2572,
        "east</w>": 2573,
        "even</w>": 2574,
        "sian</w>": 2575,
        "iles</w>": 2576,
        "ists</w>": 2577,
        "lery</w>": 2578,
        "aced</w>": 2579,
        "role</w>": 2580,
        "aily</w>": 2581,
        "nine</w>": 2582,
        "ayed</w>": 2583,
        "ites</w>": 2584,
        "Road</w>": 2585,
        "nson</w>": 2586,
        "nter</w>": 2587,
        "help</w>": 2588,
        "ewed</w>": 2589,
        "uses</w>": 2590,
        "tank</w>": 2591,
        "tely</w>": 2592,
        "rics</w>": 2593,
        "ongs</w>": 2594,
        "aped</w>": 2595,
        "Jane</w>": 2596,
        "rock</w>": 2597,
        "ikal</w>": 2598,
        "made</w>": 2599,
        "tomb</w>": 2600,
        "gave</w>": 2601,
        "Best</w>": 2602,
        "particip": 2603,
        "cles</w>": 2604,
        "game</w>": 2605,
        "zing</w>": 2606,
        "hold</w>": 2607,
        "evin</w>": 2608,
        "cott</w>": 2609,
        "Late</w>": 2610,
        "Ball</w>": 2611,
        "last</w>": 2612,
        "ffic</w>": 2613,
        "dway</w>": 2614,
        "half</w>": 2615,
        "osek</w>": 2616,
        "land</w>": 2617,
        "dead</w>": 2618,
        "ench</w>": 2619,
        "erry</w>": 2620,
        "difficul": 2621,
        "nner</w>": 2622,
        "ples</w>": 2623,
        "less</w>": 2624,
        "ical</w>": 2625,
        "loor</w>": 2626,
        "Team</w>": 2627,
        "hina</w>": 2628,
        "tong</w>": 2629,
        "play</w>": 2630,
        "yard</w>": 2631,
        "onse</w>": 2632,
        "Club</w>": 2633,
        "nths</w>": 2634,
        "challeng": 2635,
        "sual</w>": 2636,
        "lled</w>": 2637,
        "tone</w>": 2638,
        "aken</w>": 2639,
        "tter</w>": 2640,
        "ixed</w>": 2641,
        "aces</w>": 2642,
        "tler</w>": 2643,
        "ward</w>": 2644,
        "kely</w>": 2645,
        "anes</w>": 2646,
        "ated</w>": 2647,
        "port</w>": 2648,
        "Star</w>": 2649,
        "cess</w>": 2650,
        "oney</w>": 2651,
        "ssal</w>": 2652,
        "cate</w>": 2653,
        "hour</w>": 2654,
        "plan</w>": 2655,
        "eign</w>": 2656,
        "book</w>": 2657,
        "look</w>": 2658,
        "feat</w>": 2659,
        "ssed</w>": 2660,
        "oals</w>": 2661,
        "fast</w>": 2662,
        "ador</w>": 2663,
        "beat</w>": 2664,
        "hese</w>": 2665,
        "live</w>": 2666,
        "sked</w>": 2667,
        "arry</w>": 2668,
        "bour</w>": 2669,
        "base</w>": 2670,
        "ythe</w>": 2671,
        "form</w>": 2672,
        "lane</w>": 2673,
        "ment</w>": 2674,
        "kers</w>": 2675,
        "wide</w>": 2676,
        "nant</w>": 2677,
        "find</w>": 2678,
        "ield</w>": 2679,
        "best</w>": 2680,
        "ines</w>": 2681,
        "nies</w>": 2682,
        "ttee</w>": 2683,
        "yles</w>": 2684,
        "fell</w>": 2685,
        "nals</w>": 2686,
        "West</w>": 2687,
        "tack</w>": 2688,
        "yria</w>": 2689,
        "ctor</w>": 2690,
        "only</w>": 2691,
        "home</w>": 2692,
        "hear</w>": 2693,
        "ders</w>": 2694,
        "ffer</w>": 2695,
        "sent</w>": 2696,
        "term</w>": 2697,
        "icts</w>": 2698,
        "dies</w>": 2699,
        "were</w>": 2700,
        "hway</w>": 2701,
        "dyls</w>": 2702,
        "ians</w>": 2703,
        "John</w>": 2704,
        "eath</w>": 2705,
        "adly</w>": 2706,
        "lers</w>": 2707,
        "ttle</w>": 2708,
        "male</w>": 2709,
        "ency</w>": 2710,
        "chaeolog": 2711,
        "uary</w>": 2712,
        "came</w>": 2713,
        "rule</w>": 2714,
        "here</w>": 2715,
        "sses</w>": 2716,
        "shop</w>": 2717,
        "oins</w>": 2718,
        "jona</w>": 2719,
        "eral</w>": 2720,
        "fted</w>": 2721,
        "pass</w>": 2722,
        "time</w>": 2723,
        "hter</w>": 2724,
        "iest</w>": 2725,
        "hard</w>": 2726,
        "test</w>": 2727,
        "illo</w>": 2728,
        "onth</w>": 2729,
        "band</w>": 2730,
        "cial</w>": 2731,
        "lies</w>": 2732,
        "imed</w>": 2733,
        "lver</w>": 2734,
        "lied</w>": 2735,
        "real</w>": 2736,
        "tmas</w>": 2737,
        "stal</w>": 2738,
        "lays</w>": 2739,
        "ades</w>": 2740,
        "mark</w>": 2741,
        "ures</w>": 2742,
        "away</w>": 2743,
        "born</w>": 2744,
        "fter</w>": 2745,
        "interpre": 2746,
        "tten</w>": 2747,
        "left</w>": 2748,
        "part</w>": 2749,
        "noon</w>": 2750,
        "lock</w>": 2751,
        "Long</w>": 2752,
        "crew</w>": 2753,
        "ower</w>": 2754,
        "fect</w>": 2755,
        "ette</w>": 2756,
        "aked</w>": 2757,
        "racy</w>": 2758,
        "pite</w>": 2759,
        "ctly</w>": 2760,
        "ster</w>": 2761,
        "ates</w>": 2762,
        "week</w>": 2763,
        "Head</w>": 2764,
        "aphy</w>": 2765,
        "ases</w>": 2766,
        "reak</w>": 2767,
        "oard</w>": 2768,
        "cans</w>": 2769,
        "wife</w>": 2770,
        "when</w>": 2771,
        "icky</w>": 2772,
        "ient</w>": 2773,
        "aves</w>": 2774,
        "city</w>": 2775,
        "more</w>": 2776,
        "anks</w>": 2777,
        "ight</w>": 2778,
        "goal</w>": 2779,
        "lone</w>": 2780,
        "ilar</w>": 2781,
        "army</w>": 2782,
        "ount</w>": 2783,
        "hire</w>": 2784,
        "eady</w>": 2785,
        "Asia</w>": 2786,
        "hoon</w>": 2787,
        "inor</w>": 2788,
        "pect</w>": 2789,
        "otes</w>": 2790,
        "asis</w>": 2791,
        "know</w>": 2792,
        "ages</w>": 2793,
        "mate</w>": 2794,
        "oden</w>": 2795,
        "ives</w>": 2796,
        "pher</w>": 2797,
        "ientolog": 2798,
        "York</w>": 2799,
        "name</w>": 2800,
        "inly</w>": 2801,
        "stin</w>": 2802,
        "ipal</w>": 2803,
        "unit</w>": 2804,
        "Blue</w>": 2805,
        "next</w>": 2806,
        "dark</w>": 2807,
        "berg</w>": 2808,
        "nced</w>": 2809,
        "very</w>": 2810,
        "fice</w>": 2811,
        "fact</w>": 2812,
        "show</w>": 2813,
        "East</w>": 2814,
        "peed</w>": 2815,
        "lack</w>": 2816,
        "oted</w>": 2817,
        "ange</w>": 2818,
        "said</w>": 2819,
        "oose</w>": 2820,
        "icer</w>": 2821,
        "tado</w>": 2822,
        "size</w>": 2823,
        "hown</w>": 2824,
        "onna</w>": 2825,
        "lict</w>": 2826,
        "ball</w>": 2827,
        "line</w>": 2828,
        "inds</w>": 2829,
        "itar</w>": 2830,
        "gods</w>": 2831,
        "alls</w>": 2832,
        "ided</w>": 2833,
        "ifth</w>": 2834,
        "most</w>": 2835,
        "mith</w>": 2836,
        "oint</w>": 2837,
        "tive</w>": 2838,
        "tead</w>": 2839,
        "ever</w>": 2840,
        "akes</w>": 2841,
        "word</w>": 2842,
        "king</w>": 2843,
        "Most</w>": 2844,
        "ania</w>": 2845,
        "nown</w>": 2846,
        "ocks</w>": 2847,
        "eant</w>": 2848,
        "ered</w>": 2849,
        "nded</w>": 2850,
        "ject</w>": 2851,
        "ized</w>": 2852,
        "esia</w>": 2853,
        "sion</w>": 2854,
        "irst</w>": 2855,
        "ends</w>": 2856,
        "area</w>": 2857,
        "hell</w>": 2858,
        "leet</w>": 2859,
        "ghts</w>": 2860,
        "then</w>": 2861,
        "core</w>": 2862,
        "phic</w>": 2863,
        "ters</w>": 2864,
        "ntil</w>": 2865,
        "nada</w>": 2866,
        "sons</w>": 2867,
        "ears</w>": 2868,
        "nity</w>": 2869,
        "When</w>": 2870,
        "reek</w>": 2871,
        "gers</w>": 2872,
        "edge</w>": 2873,
        "stry</w>": 2874,
        "clad</w>": 2875,
        "osed</w>": 2876,
        "been</w>": 2877,
        "rain</w>": 2878,
        "ople</w>": 2879,
        "Army</w>": 2880,
        "burg</w>": 2881,
        "ents</w>": 2882,
        "Game</w>": 2883,
        "ouse</w>": 2884,
        "consider": 2885,
        "than</w>": 2886,
        "ader</w>": 2887,
        "atch</w>": 2888,
        "plot</w>": 2889,
        "enal</w>": 2890,
        "ties</w>": 2891,
        "held</w>": 2892,
        "constitu": 2893,
        "lead</w>": 2894,
        "have</w>": 2895,
        "ften</w>": 2896,
        "ways</w>": 2897,
        "oyal</w>": 2898,
        "individu": 2899,
        "etry</w>": 2900,
        "long</w>": 2901,
        "ning</w>": 2902,
        "etal</w>": 2903,
        "mond</w>": 2904,
        "ners</w>": 2905,
        "edia</w>": 2906,
        "ving</w>": 2907,
        "rear</w>": 2908,
        "ajor</w>": 2909,
        "sers</w>": 2910,
        "Nero</w>": 2911,
        "four</w>": 2912,
        "Year</w>": 2913,
        "stly</w>": 2914,
        "ntal</w>": 2915,
        "town</w>": 2916,
        "lose</w>": 2917,
        "ince</w>": 2918,
        "race</w>": 2919,
        "hine</w>": 2920,
        "nial</w>": 2921,
        "uard</w>": 2922,
        "That</w>": 2923,
        "nton</w>": 2924,
        "rons</w>": 2925,
        "oman</w>": 2926,
        "atic</w>": 2927,
        "tary</w>": 2928,
        "enes</w>": 2929,
        "cond</w>": 2930,
        "teel</w>": 2931,
        "gher</w>": 2932,
        "Fort</w>": 2933,
        "ting</w>": 2934,
        "ress</w>": 2935,
        "cide</w>": 2936,
        "rmed</w>": 2937,
        "sely</w>": 2938,
        "idge</w>": 2939,
        "life</w>": 2940,
        "onto</w>": 2941,
        "aint</w>": 2942,
        "ible</w>": 2943,
        "ding</w>": 2944,
        "kham</w>": 2945,
        "oast</w>": 2946,
        "side</w>": 2947,
        "pine</w>": 2948,
        "pped</w>": 2949,
        "contribu": 2950,
        "mans</w>": 2951,
        "ober</w>": 2952,
        "ific</w>": 2953,
        "llen</w>": 2954,
        "ndon</w>": 2955,
        "Sonic</w>": 2956,
        "ented</w>": 2957,
        "raded</w>": 2958,
        "range</w>": 2959,
        "ckets</w>": 2960,
        "China</w>": 2961,
        "oured</w>": 2962,
        "eding</w>": 2963,
        "press</w>": 2964,
        "dings</w>": 2965,
        "while</w>": 2966,
        "young</w>": 2967,
        "clads</w>": 2968,
        "major</w>": 2969,
        "ssion</w>": 2970,
        "acked</w>": 2971,
        "Black</w>": 2972,
        "ained</w>": 2973,
        "water</w>": 2974,
        "month</w>": 2975,
        "antry</w>": 2976,
        "enate</w>": 2977,
        "nship</w>": 2978,
        "Egypt</w>": 2979,
        "shows</w>": 2980,
        "First</w>": 2981,
        "eased</w>": 2982,
        "pened</w>": 2983,
        "asons</w>": 2984,
        "ority</w>": 2985,
        "ember</w>": 2986,
        "ution</w>": 2987,
        "place</w>": 2988,
        "lines</w>": 2989,
        "pture</w>": 2990,
        "Since</w>": 2991,
        "fined</w>": 2992,
        "eally</w>": 2993,
        "acing</w>": 2994,
        "ision</w>": 2995,
        "ssary</w>": 2996,
        "assed</w>": 2997,
        "Latin</w>": 2998,
        "shore</w>": 2999,
        "itors</w>": 3000,
        "boats</w>": 3001,
        "steam</w>": 3002,
        "world</w>": 3003,
        "While</w>": 3004,
        "ctors</w>": 3005,
        "death</w>": 3006,
        "Carey</w>": 3007,
        "newly</w>": 3008,
        "pical</w>": 3009,
        "rance</w>": 3010,
        "stern</w>": 3011,
        "thing</w>": 3012,
        "epted</w>": 3013,
        "There</w>": 3014,
        "ighly</w>": 3015,
        "character": 3016,
        "Three</w>": 3017,
        "those</w>": 3018,
        "scape</w>": 3019,
        "field</w>": 3020,
        "ening</w>": 3021,
        "anada</w>": 3022,
        "tself</w>": 3023,
        "State</w>": 3024,
        "reach</w>": 3025,
        "ready</w>": 3026,
        "stone</w>": 3027,
        "ander</w>": 3028,
        "title</w>": 3029,
        "tance</w>": 3030,
        "donna</w>": 3031,
        "great</w>": 3032,
        "iding</w>": 3033,
        "nasty</w>": 3034,
        "total</w>": 3035,
        "igned</w>": 3036,
        "tanks</w>": 3037,
        "level</w>": 3038,
        "pines</w>": 3039,
        "ncing</w>": 3040,
        "women</w>": 3041,
        "floor</w>": 3042,
        "tered</w>": 3043,
        "mixed</w>": 3044,
        "jillo</w>": 3045,
        "ither</w>": 3046,
        "ntact</w>": 3047,
        "eenth</w>": 3048,
        "ntary</w>": 3049,
        "ghtly</w>": 3050,
        "front</w>": 3051,
        "eauty</w>": 3052,
        "actor</w>": 3053,
        "route</w>": 3054,
        "neral</w>": 3055,
        "itler</w>": 3056,
        "ffect</w>": 3057,
        "hurch</w>": 3058,
        "ative</w>": 3059,
        "point</w>": 3060,
        "ished</w>": 3061,
        "human</w>": 3062,
        "icted</w>": 3063,
        "dical</w>": 3064,
        "ested</w>": 3065,
        "nment</w>": 3066,
        "opted</w>": 3067,
        "flict</w>": 3068,
        "mited</w>": 3069,
        "three</w>": 3070,
        "eople</w>": 3071,
        "sador</w>": 3072,
        "otion</w>": 3073,
        "archs</w>": 3074,
        "asses</w>": 3075,
        "clude</w>": 3076,
        "atest</w>": 3077,
        "stmas</w>": 3078,
        "aster</w>": 3079,
        "ridge</w>": 3080,
        "state</w>": 3081,
        "radio</w>": 3082,
        "James</w>": 3083,
        "ffice</w>": 3084,
        "anned</w>": 3085,
        "ption</w>": 3086,
        "iving</w>": 3087,
        "inted</w>": 3088,
        "terms</w>": 3089,
        "homes</w>": 3090,
        "below</w>": 3091,
        "speed</w>": 3092,
        "oston</w>": 3093,
        "ction</w>": 3094,
        "spite</w>": 3095,
        "tters</w>": 3096,
        "nsity</w>": 3097,
        "songs</w>": 3098,
        "ments</w>": 3099,
        "brary</w>": 3100,
        "larly</w>": 3101,
        "pired</w>": 3102,
        "hands</w>": 3103,
        "acted</w>": 3104,
        "dding</w>": 3105,
        "chart</w>": 3106,
        "table</w>": 3107,
        "cient</w>": 3108,
        "dated</w>": 3109,
        "cials</w>": 3110,
        "econd</w>": 3111,
        "oting</w>": 3112,
        "nclad</w>": 3113,
        "allow</w>": 3114,
        "Corps</w>": 3115,
        "coach</w>": 3116,
        "image</w>": 3117,
        "stead</w>": 3118,
        "Under</w>": 3119,
        "seven</w>": 3120,
        "ansas</w>": 3121,
        "ocial</w>": 3122,
        "After</w>": 3123,
        "wards</w>": 3124,
        "clone</w>": 3125,
        "Young</w>": 3126,
        "whose</w>": 3127,
        "coins</w>": 3128,
        "right</w>": 3129,
        "aimed</w>": 3130,
        "thern</w>": 3131,
        "makes</w>": 3132,
        "naval</w>": 3133,
        "shown</w>": 3134,
        "yards</w>": 3135,
        "ining</w>": 3136,
        "nburg</w>": 3137,
        "vided</w>": 3138,
        "found</w>": 3139,
        "close</w>": 3140,
        "layer</w>": 3141,
        "thick</w>": 3142,
        "other</w>": 3143,
        "eater</w>": 3144,
        "sists</w>": 3145,
        "lived</w>": 3146,
        "court</w>": 3147,
        "llion</w>": 3148,
        "ffort</w>": 3149,
        "eived</w>": 3150,
        "steel</w>": 3151,
        "asked</w>": 3152,
        "ellow</w>": 3153,
        "coast</w>": 3154,
        "eight</w>": 3155,
        "match</w>": 3156,
        "March</w>": 3157,
        "ndent</w>": 3158,
        "river</w>": 3159,
        "Derry</w>": 3160,
        "where</w>": 3161,
        "ester</w>": 3162,
        "eague</w>": 3163,
        "fense</w>": 3164,
        "miral</w>": 3165,
        "order</w>": 3166,
        "start</w>": 3167,
        "forts</w>": 3168,
        "roads</w>": 3169,
        "ether</w>": 3170,
        "music</w>": 3171,
        "attle</w>": 3172,
        "ature</w>": 3173,
        "Route</w>": 3174,
        "shing</w>": 3175,
        "asion</w>": 3176,
        "ences</w>": 3177,
        "house</w>": 3178,
        "dance</w>": 3179,
        "eason</w>": 3180,
        "class</w>": 3181,
        "onary</w>": 3182,
        "Major</w>": 3183,
        "child</w>": 3184,
        "dment</w>": 3185,
        "nally</w>": 3186,
        "ached</w>": 3187,
        "Stone</w>": 3188,
        "iated</w>": 3189,
        "Wales</w>": 3190,
        "lined</w>": 3191,
        "pears</w>": 3192,
        "fying</w>": 3193,
        "ified</w>": 3194,
        "creen</w>": 3195,
        "gence</w>": 3196,
        "draft</w>": 3197,
        "album</w>": 3198,
        "names</w>": 3199,
        "given</w>": 3200,
        "based</w>": 3201,
        "nding</w>": 3202,
        "ading</w>": 3203,
        "Olmec</w>": 3204,
        "David</w>": 3205,
        "efore</w>": 3206,
        "tling</w>": 3207,
        "Award</w>": 3208,
        "Shiva</w>": 3209,
        "ndyls</w>": 3210,
        "cientolog": 3211,
        "ought</w>": 3212,
        "serve</w>": 3213,
        "apped</w>": 3214,
        "under</w>": 3215,
        "never</w>": 3216,
        "iracy</w>": 3217,
        "space</w>": 3218,
        "ional</w>": 3219,
        "notes</w>": 3220,
        "small</w>": 3221,
        "eting</w>": 3222,
        "eeded</w>": 3223,
        "stant</w>": 3224,
        "short</w>": 3225,
        "nsion</w>": 3226,
        "ntain</w>": 3227,
        "tower</w>": 3228,
        "tball</w>": 3229,
        "final</w>": 3230,
        "uitar</w>": 3231,
        "overs</w>": 3232,
        "novel</w>": 3233,
        "ilver</w>": 3234,
        "phoon</w>": 3235,
        "cipal</w>": 3236,
        "ktong</w>": 3237,
        "video</w>": 3238,
        "piece</w>": 3239,
        "ehind</w>": 3240,
        "roles</w>": 3241,
        "riter</w>": 3242,
        "ising</w>": 3243,
        "ental</w>": 3244,
        "tober</w>": 3245,
        "ainly</w>": 3246,
        "units</w>": 3247,
        "urner</w>": 3248,
        "Chief</w>": 3249,
        "which</w>": 3250,
        "enced</w>": 3251,
        "icane</w>": 3252,
        "rtado</w>": 3253,
        "ident</w>": 3254,
        "round</w>": 3255,
        "Court</w>": 3256,
        "ailed</w>": 3257,
        "ghway</w>": 3258,
        "trade</w>": 3259,
        "ecame</w>": 3260,
        "iling</w>": 3261,
        "ocals</w>": 3262,
        "Eaton</w>": 3263,
        "Press</w>": 3264,
        "craft</w>": 3265,
        "lands</w>": 3266,
        "fully</w>": 3267,
        "lling</w>": 3268,
        "gures</w>": 3269,
        "party</w>": 3270,
        "inese</w>": 3271,
        "sides</w>": 3272,
        "weeks</w>": 3273,
        "rated</w>": 3274,
        "tates</w>": 3275,
        "storm</w>": 3276,
        "began</w>": 3277,
        "plays</w>": 3278,
        "ector</w>": 3279,
        "ealth</w>": 3280,
        "miles</w>": 3281,
        "World</w>": 3282,
        "peror</w>": 3283,
        "ncial</w>": 3284,
        "owned</w>": 3285,
        "Nosek</w>": 3286,
        "ghter</w>": 3287,
        "wrote</w>": 3288,
        "might</w>": 3289,
        "iting</w>": 3290,
        "Smith</w>": 3291,
        "games</w>": 3292,
        "cover</w>": 3293,
        "atory</w>": 3294,
        "hould</w>": 3295,
        "whole</w>": 3296,
        "comes</w>": 3297,
        "doned</w>": 3298,
        "heads</w>": 3299,
        "spect</w>": 3300,
        "pidly</w>": 3301,
        "Force</w>": 3302,
        "break</w>": 3303,
        "stage</w>": 3304,
        "years</w>": 3305,
        "ships</w>": 3306,
        "tries</w>": 3307,
        "jects</w>": 3308,
        "ordan</w>": 3309,
        "ostly</w>": 3310,
        "words</w>": 3311,
        "essed</w>": 3312,
        "raphy</w>": 3313,
        "odies</w>": 3314,
        "ender</w>": 3315,
        "igher</w>": 3316,
        "Angle</w>": 3317,
        "ikely</w>": 3318,
        "poems</w>": 3319,
        "icant</w>": 3320,
        "nfall</w>": 3321,
        "milar</w>": 3322,
        "oetry</w>": 3323,
        "think</w>": 3324,
        "iddle</w>": 3325,
        "roken</w>": 3326,
        "nches</w>": 3327,
        "eader</w>": 3328,
        "icial</w>": 3329,
        "Japan</w>": 3330,
        "every</w>": 3331,
        "ology</w>": 3332,
        "chill</w>": 3333,
        "octor</w>": 3334,
        "heavy</w>": 3335,
        "ssels</w>": 3336,
        "ition</w>": 3337,
        "Starr</w>": 3338,
        "ously</w>": 3339,
        "tural</w>": 3340,
        "using</w>": 3341,
        "cenes</w>": 3342,
        "story</w>": 3343,
        "turns</w>": 3344,
        "guard</w>": 3345,
        "llery</w>": 3346,
        "North</w>": 3347,
        "white</w>": 3348,
        "first</w>": 3349,
        "ciety</w>": 3350,
        "their</w>": 3351,
        "known</w>": 3352,
        "Tikal</w>": 3353,
        "cated</w>": 3354,
        "named</w>": 3355,
        "bered</w>": 3356,
        "nance</w>": 3357,
        "scent</w>": 3358,
        "pting</w>": 3359,
        "ience</w>": 3360,
        "anese</w>": 3361,
        "enior</w>": 3362,
        "itish</w>": 3363,
        "built</w>": 3364,
        "until</w>": 3365,
        "elled</w>": 3366,
        "anila</w>": 3367,
        "since</w>": 3368,
        "ssing</w>": 3369,
        "ecome</w>": 3370,
        "tones</w>": 3371,
        "osses</w>": 3372,
        "lated</w>": 3373,
        "itted</w>": 3374,
        "parts</w>": 3375,
        "ation</w>": 3376,
        "arian</w>": 3377,
        "luded</w>": 3378,
        "tated</w>": 3379,
        "times</w>": 3380,
        "meant</w>": 3381,
        "anked</w>": 3382,
        "fence</w>": 3383,
        "opped</w>": 3384,
        "fifth</w>": 3385,
        "force</w>": 3386,
        "noted</w>": 3387,
        "dress</w>": 3388,
        "power</w>": 3389,
        "Group</w>": 3390,
        "could</w>": 3391,
        "uring</w>": 3392,
        "uding</w>": 3393,
        "nated</w>": 3394,
        "Music</w>": 3395,
        "large</w>": 3396,
        "kings</w>": 3397,
        "raves</w>": 3398,
        "inner</w>": 3399,
        "Peter</w>": 3400,
        "aning</w>": 3401,
        "ullen</w>": 3402,
        "aters</w>": 3403,
        "isode</w>": 3404,
        "eaked</w>": 3405,
        "sible</w>": 3406,
        "ports</w>": 3407,
        "eated</w>": 3408,
        "books</w>": 3409,
        "borne</w>": 3410,
        "Royal</w>": 3411,
        "ately</w>": 3412,
        "teams</w>": 3413,
        "Times</w>": 3414,
        "stand</w>": 3415,
        "event</w>": 3416,
        "pping</w>": 3417,
        "Scott</w>": 3418,
        "hours</w>": 3419,
        "esign</w>": 3420,
        "cking</w>": 3421,
        "metal</w>": 3422,
        "ssage</w>": 3423,
        "nting</w>": 3424,
        "ccess</w>": 3425,
        "obert</w>": 3426,
        "osing</w>": 3427,
        "plain</w>": 3428,
        "money</w>": 3429,
        "early</w>": 3430,
        "icers</w>": 3431,
        "cause</w>": 3432,
        "ially</w>": 3433,
        "Bacon</w>": 3434,
        "lliam</w>": 3435,
        "ioned</w>": 3436,
        "winds</w>": 3437,
        "aking</w>": 3438,
        "Bulls</w>": 3439,
        "Field</w>": 3440,
        "tting</w>": 3441,
        "ville</w>": 3442,
        "itten</w>": 3443,
        "isted</w>": 3444,
        "scene</w>": 3445,
        "etter</w>": 3446,
        "Ricky</w>": 3447,
        "endes</w>": 3448,
        "nable</w>": 3449,
        "senal</w>": 3450,
        "ating</w>": 3451,
        "sical</w>": 3452,
        "efeat</w>": 3453,
        "esian</w>": 3454,
        "north</w>": 3455,
        "ength</w>": 3456,
        "Eddie</w>": 3457,
        "again</w>": 3458,
        "River</w>": 3459,
        "ndian</w>": 3460,
        "anded</w>": 3461,
        "layed</w>": 3462,
        "there</w>": 3463,
        "theme</w>": 3464,
        "nders</w>": 3465,
        "dates</w>": 3466,
        "minor</w>": 3467,
        "Other</w>": 3468,
        "among</w>": 3469,
        "eaded</w>": 3470,
        "tains</w>": 3471,
        "loyed</w>": 3472,
        "tacks</w>": 3473,
        "eless</w>": 3474,
        "nited</w>": 3475,
        "ittle</w>": 3476,
        "about</w>": 3477,
        "April</w>": 3478,
        "ponse</w>": 3479,
        "ivine</w>": 3480,
        "olish</w>": 3481,
        "fired</w>": 3482,
        "tened</w>": 3483,
        "antly</w>": 3484,
        "anted</w>": 3485,
        "clear</w>": 3486,
        "Roman</w>": 3487,
        "score</w>": 3488,
        "enemy</w>": 3489,
        "uence</w>": 3490,
        "spent</w>": 3491,
        "cture</w>": 3492,
        "aging</w>": 3493,
        "nking</w>": 3494,
        "dents</w>": 3495,
        "kened</w>": 3496,
        "apons</w>": 3497,
        "urder</w>": 3498,
        "alist</w>": 3499,
        "tland</w>": 3500,
        "nside</w>": 3501,
        "interview": 3502,
        "prior</w>": 3503,
        "track</w>": 3504,
        "Great</w>": 3505,
        "ecial</w>": 3506,
        "ludes</w>": 3507,
        "ectly</w>": 3508,
        "enter</w>": 3509,
        "ptain</w>": 3510,
        "gency</w>": 3511,
        "igure</w>": 3512,
        "lythe</w>": 3513,
        "sters</w>": 3514,
        "ecies</w>": 3515,
        "rjona</w>": 3516,
        "nings</w>": 3517,
        "ghest</w>": 3518,
        "after</w>": 3519,
        "added</w>": 3520,
        "forms</w>": 3521,
        "lying</w>": 3522,
        "atter</w>": 3523,
        "tyles</w>": 3524,
        "armor</w>": 3525,
        "oning</w>": 3526,
        "nimal</w>": 3527,
        "ntage</w>": 3528,
        "erous</w>": 3529,
        "ieces</w>": 3530,
        "ement</w>": 3531,
        "icles</w>": 3532,
        "venue</w>": 3533,
        "black</w>": 3534,
        "pment</w>": 3535,
        "moved</w>": 3536,
        "count</w>": 3537,
        "armed</w>": 3538,
        "yment</w>": 3539,
        "going</w>": 3540,
        "Early</w>": 3541,
        "cular</w>": 3542,
        "onths</w>": 3543,
        "Works</w>": 3544,
        "Creek</w>": 3545,
        "issed</w>": 3546,
        "films</w>": 3547,
        "style</w>": 3548,
        "India</w>": 3549,
        "broke</w>": 3550,
        "award</w>": 3551,
        "losed</w>": 3552,
        "opies</w>": 3553,
        "paper</w>": 3554,
        "iters</w>": 3555,
        "these</w>": 3556,
        "vance</w>": 3557,
        "conds</w>": 3558,
        "fleet</w>": 3559,
        "posed</w>": 3560,
        "ssian</w>": 3561,
        "nsive</w>": 3562,
        "staff</w>": 3563,
        "ooden</w>": 3564,
        "Later</w>": 3565,
        "takes</w>": 3566,
        "nland</w>": 3567,
        "antic</w>": 3568,
        "tions</w>": 3569,
        "ruary</w>": 3570,
        "esnar</w>": 3571,
        "ckham</w>": 3572,
        "ility</w>": 3573,
        "media</w>": 3574,
        "assic</w>": 3575,
        "local</w>": 3576,
        "South</w>": 3577,
        "aired</w>": 3578,
        "dered</w>": 3579,
        "cided</w>": 3580,
        "laced</w>": 3581,
        "yrics</w>": 3582,
        "caves</w>": 3583,
        "least</w>": 3584,
        "esses</w>": 3585,
        "cific</w>": 3586,
        "ocked</w>": 3587,
        "ficer</w>": 3588,
        "legal</w>": 3589,
        "sound</w>": 3590,
        "ality</w>": 3591,
        "enant</w>": 3592,
        "often</w>": 3593,
        "later</w>": 3594,
        "ondon</w>": 3595,
        "nough</w>": 3596,
        "works</w>": 3597,
        "dence</w>": 3598,
        "mouth</w>": 3599,
        "ather</w>": 3600,
        "fects</w>": 3601,
        "These</w>": 3602,
        "would</w>": 3603,
        "llage</w>": 3604,
        "olled</w>": 3605,
        "iders</w>": 3606,
        "south</w>": 3607,
        "ttack</w>": 3608,
        "sixth</w>": 3609,
        "nning</w>": 3610,
        "ayers</w>": 3611,
        "plans</w>": 3612,
        "aised</w>": 3613,
        "mself</w>": 3614,
        "House</w>": 3615,
        "board</w>": 3616,
        "bound</w>": 3617,
        "onald</w>": 3618,
        "still</w>": 3619,
        "anced</w>": 3620,
        "cades</w>": 3621,
        "taken</w>": 3622,
        "group</w>": 3623,
        "ances</w>": 3624,
        "fight</w>": 3625,
        "ities</w>": 3626,
        "aying</w>": 3627,
        "rport</w>": 3628,
        "ators</w>": 3629,
        "Fleet</w>": 3630,
        "debut</w>": 3631,
        "adian</w>": 3632,
        "liffe</w>": 3633,
        "third</w>": 3634,
        "ended</w>": 3635,
        "cross</w>": 3636,
        "eball</w>": 3637,
        "signs</w>": 3638,
        "osted</w>": 3639,
        "night</w>": 3640,
        "nized</w>": 3641,
        "stein</w>": 3642,
        "faced</w>": 3643,
        "sland</w>": 3644,
        "meter</w>": 3645,
        "itary</w>": 3646,
        "lanes</w>": 3647,
        "issue</w>": 3648,
        "cally</w>": 3649,
        "buted</w>": 3650,
        "lower</w>": 3651,
        "sions</w>": 3652,
        "tment</w>": 3653,
        "pital</w>": 3654,
        "being</w>": 3655,
        "dgers</w>": 3656,
        "above</w>": 3657,
        "ected</w>": 3658,
        "along</w>": 3659,
        "ishop</w>": 3660,
        "inals</w>": 3661,
        "Pagan</w>": 3662,
        "upper</w>": 3663,
        "hting</w>": 3664,
        "ssive</w>": 3665,
        "ently</w>": 3666,
        "oking</w>": 3667,
        "illed</w>": 3668,
        "oints</w>": 3669,
        "tages</w>": 3670,
        "light</w>": 3671,
        "Union</w>": 3672,
        "tence</w>": 3673,
        "rench</w>": 3674,
        "ively</w>": 3675,
        "laces</w>": 3676,
        "irect</w>": 3677,
        "oined</w>": 3678,
        "Nerva</w>": 3679,
        "ndary</w>": 3680,
        "iring</w>": 3681,
        "ights</w>": 3682,
        "eport</w>": 3683,
        "ister</w>": 3684,
        "areas</w>": 3685,
        "things</w>": 3686,
        "Second</w>": 3687,
        "People</w>": 3688,
        "Thomas</w>": 3689,
        "waters</w>": 3690,
        "called</w>": 3691,
        "ritten</w>": 3692,
        "bridge</w>": 3693,
        "rcraft</w>": 3694,
        "cluded</w>": 3695,
        "dollar</w>": 3696,
        "Africa</w>": 3697,
        "policy</w>": 3698,
        "itting</w>": 3699,
        "cision</w>": 3700,
        "ctions</w>": 3701,
        "ensive</w>": 3702,
        "tation</w>": 3703,
        "create</w>": 3704,
        "sponse</w>": 3705,
        "ightly</w>": 3706,
        "worked</w>": 3707,
        "ciated</w>": 3708,
        "forced</w>": 3709,
        "uenced</w>": 3710,
        "return</w>": 3711,
        "luding</w>": 3712,
        "struck</w>": 3713,
        "giving</w>": 3714,
        "served</w>": 3715,
        "sively</w>": 3716,
        "living</w>": 3717,
        "States</w>": 3718,
        "ssible</w>": 3719,
        "ctober</w>": 3720,
        "status</w>": 3721,
        "person</w>": 3722,
        "earing</w>": 3723,
        "Bridge</w>": 3724,
        "Temple</w>": 3725,
        "luence</w>": 3726,
        "gether</w>": 3727,
        "theast</w>": 3728,
        "tained</w>": 3729,
        "ensity</w>": 3730,
        "murder</w>": 3731,
        "achine</w>": 3732,
        "pisode</w>": 3733,
        "eships</w>": 3734,
        "acific</w>": 3735,
        "ointed</w>": 3736,
        "latter</w>": 3737,
        "losing</w>": 3738,
        "needed</w>": 3739,
        "adonna</w>": 3740,
        "ffered</w>": 3741,
        "across</w>": 3742,
        "always</w>": 3743,
        "within</w>": 3744,
        "rected</w>": 3745,
        "fitted</w>": 3746,
        "espite</w>": 3747,
        "ission</w>": 3748,
        "stones</w>": 3749,
        "defeat</w>": 3750,
        "tacked</w>": 3751,
        "inated</w>": 3752,
        "lities</w>": 3753,
        "signed</w>": 3754,
        "ttacks</w>": 3755,
        "stered</w>": 3756,
        "ported</w>": 3757,
        "regime</w>": 3758,
        "people</w>": 3759,
        "Empire</w>": 3760,
        "lassic</w>": 3761,
        "Senate</w>": 3762,
        "female</w>": 3763,
        "island</w>": 3764,
        "itself</w>": 3765,
        "either</w>": 3766,
        "lyrics</w>": 3767,
        "former</w>": 3768,
        "failed</w>": 3769,
        "scored</w>": 3770,
        "etting</w>": 3771,
        "igures</w>": 3772,
        "eckham</w>": 3773,
        "course</w>": 3774,
        "German</w>": 3775,
        "yphoon</w>": 3776,
        "acking</w>": 3777,
        "ondyls</w>": 3778,
        "istmas</w>": 3779,
        "rother</w>": 3780,
        "endent</w>": 3781,
        "embers</w>": 3782,
        "rapped</w>": 3783,
        "sation</w>": 3784,
        "topped</w>": 3785,
        "action</w>": 3786,
        "eating</w>": 3787,
        "higher</w>": 3788,
        "essary</w>": 3789,
        "summer</w>": 3790,
        "entire</w>": 3791,
        "Blythe</w>": 3792,
        "ential</w>": 3793,
        "artist</w>": 3794,
        "studio</w>": 3795,
        "tended</w>": 3796,
        "rector</w>": 3797,
        "sition</w>": 3798,
        "really</w>": 3799,
        "nclads</w>": 3800,
        "eities</w>": 3801,
        "isters</w>": 3802,
        "native</w>": 3803,
        "ective</w>": 3804,
        "panese</w>": 3805,
        "Hitler</w>": 3806,
        "Madero</w>": 3807,
        "league</w>": 3808,
        "houses</w>": 3809,
        "season</w>": 3810,
        "istant</w>": 3811,
        "Church</w>": 3812,
        "Lester</w>": 3813,
        "nalist</w>": 3814,
        "nclude</w>": 3815,
        "spread</w>": 3816,
        "dition</w>": 3817,
        "School</w>": 3818,
        "leader</w>": 3819,
        "cement</w>": 3820,
        "Center</w>": 3821,
        "aptain</w>": 3822,
        "dvance</w>": 3823,
        "onally</w>": 3824,
        "bility</w>": 3825,
        "stance</w>": 3826,
        "rectly</w>": 3827,
        "etball</w>": 3828,
        "supply</w>": 3829,
        "ssador</w>": 3830,
        "comedy</w>": 3831,
        "formed</w>": 3832,
        "eading</w>": 3833,
        "ighest</w>": 3834,
        "player</w>": 3835,
        "mately</w>": 3836,
        "Island</w>": 3837,
        "better</w>": 3838,
        "George</w>": 3839,
        "ground</w>": 3840,
        "eports</w>": 3841,
        "joined</w>": 3842,
        "poetry</w>": 3843,
        "fantry</w>": 3844,
        "ooking</w>": 3845,
        "family</w>": 3846,
        "having</w>": 3847,
        "ension</w>": 3848,
        "toward</w>": 3849,
        "inally</w>": 3850,
        "divine</w>": 3851,
        "estern</w>": 3852,
        "points</w>": 3853,
        "forces</w>": 3854,
        "damage</w>": 3855,
        "Allied</w>": 3856,
        "Little</w>": 3857,
        "behind</w>": 3858,
        "others</w>": 3859,
        "direct</w>": 3860,
        "wealth</w>": 3861,
        "marked</w>": 3862,
        "ficers</w>": 3863,
        "effect</w>": 3864,
        "singer</w>": 3865,
        "assing</w>": 3866,
        "slands</w>": 3867,
        "number</w>": 3868,
        "metres</w>": 3869,
        "remain</w>": 3870,
        "ibrary</w>": 3871,
        "ddress</w>": 3872,
        "middle</w>": 3873,
        "cation</w>": 3874,
        "vision</w>": 3875,
        "otball</w>": 3876,
        "turned</w>": 3877,
        "rborne</w>": 3878,
        "apital</w>": 3879,
        "hinese</w>": 3880,
        "League</w>": 3881,
        "scenes</w>": 3882,
        "battle</w>": 3883,
        "wanted</w>": 3884,
        "Europe</w>": 3885,
        "ceived</w>": 3886,
        "taking</w>": 3887,
        "though</w>": 3888,
        "pening</w>": 3889,
        "aktong</w>": 3890,
        "odgers</w>": 3891,
        "spired</w>": 3892,
        "likely</w>": 3893,
        "during</w>": 3894,
        "square</w>": 3895,
        "weight</w>": 3896,
        "eeting</w>": 3897,
        "lished</w>": 3898,
        "Awards</w>": 3899,
        "Marine</w>": 3900,
        "region</w>": 3901,
        "sional</w>": 3902,
        "passes</w>": 3903,
        "double</w>": 3904,
        "essels</w>": 3905,
        "armour</w>": 3906,
        "helped</w>": 3907,
        "econds</w>": 3908,
        "tenant</w>": 3909,
        "pecial</w>": 3910,
        "closed</w>": 3911,
        "litary</w>": 3912,
        "seball</w>": 3913,
        "inland</w>": 3914,
        "yclone</w>": 3915,
        "isting</w>": 3916,
        "atives</w>": 3917,
        "olling</w>": 3918,
        "apidly</w>": 3919,
        "length</w>": 3920,
        "bodies</w>": 3921,
        "Mexico</w>": 3922,
        "infall</w>": 3923,
        "eapons</w>": 3924,
        "common</w>": 3925,
        "tracks</w>": 3926,
        "ything</w>": 3927,
        "lement</w>": 3928,
        "places</w>": 3929,
        "Oregon</w>": 3930,
        "second</w>": 3931,
        "stward</w>": 3932,
        "Canada</w>": 3933,
        "vanced</w>": 3934,
        "period</w>": 3935,
        "nearly</w>": 3936,
        "Manila</w>": 3937,
        "ecided</w>": 3938,
        "spital</w>": 3939,
        "report</w>": 3940,
        "ociety</w>": 3941,
        "carved</w>": 3942,
        "centre</w>": 3943,
        "layers</w>": 3944,
        "nished</w>": 3945,
        "eaking</w>": 3946,
        "imilar</w>": 3947,
        "sisted</w>": 3948,
        "become</w>": 3949,
        "Museum</w>": 3950,
        "ussian</w>": 3951,
        "enburg</w>": 3952,
        "onclad</w>": 3953,
        "opping</w>": 3954,
        "missed</w>": 3955,
        "Scientolog": 3956,
        "ficial</w>": 3957,
        "Doctor</w>": 3958,
        "strong</w>": 3959,
        "agreed</w>": 3960,
        "cludes</w>": 3961,
        "anning</w>": 3962,
        "Mendes</w>": 3963,
        "border</w>": 3964,
        "laimed</w>": 3965,
        "teenth</w>": 3966,
        "jority</w>": 3967,
        "passed</w>": 3968,
        "irport</w>": 3969,
        "Butler</w>": 3970,
        "issued</w>": 3971,
        "Soviet</w>": 3972,
        "Battle</w>": 3973,
        "rought</w>": 3974,
        "injury</w>": 3975,
        "Sholay</w>": 3976,
        "Arjona</w>": 3977,
        "temple</w>": 3978,
        "played</w>": 3979,
        "pieces</w>": 3980,
        "nflict</w>": 3981,
        "longer</w>": 3982,
        "London</w>": 3983,
        "cepted</w>": 3984,
        "aching</w>": 3985,
        "ecting</w>": 3986,
        "screen</w>": 3987,
        "archaeolog": 3988,
        "zation</w>": 3989,
        "earned</w>": 3990,
        "perial</w>": 3991,
        "efence</w>": 3992,
        "ations</w>": 3993,
        "lation</w>": 3994,
        "ampion</w>": 3995,
        "nition</w>": 3996,
        "fficer</w>": 3997,
        "nction</w>": 3998,
        "acting</w>": 3999,
        "tments</w>": 4000,
        "hether</w>": 4001,
        "imself</w>": 4002,
        "groups</w>": 4003,
        "inches</w>": 4004,
        "flying</w>": 4005,
        "graphy</w>": 4006,
        "stated</w>": 4007,
        "riting</w>": 4008,
        "annual</w>": 4009,
        "copies</w>": 4010,
        "etwork</w>": 4011,
        "member</w>": 4012,
        "cratic</w>": 4013,
        "dation</w>": 4014,
        "Jordan</w>": 4015,
        "anders</w>": 4016,
        "onship</w>": 4017,
        "nament</w>": 4018,
        "ntains</w>": 4019,
        "illiam</w>": 4020,
        "ically</w>": 4021,
        "eneral</w>": 4022,
        "became</w>": 4023,
        "unable</w>": 4024,
        "French</w>": 4025,
        "etimes</w>": 4026,
        "efense</w>": 4027,
        "school</w>": 4028,
        "series</w>": 4029,
        "raised</w>": 4030,
        "father</w>": 4031,
        "mostly</w>": 4032,
        "almost</w>": 4033,
        "illing</w>": 4034,
        "United</w>": 4035,
        "result</w>": 4036,
        "ending</w>": 4037,
        "County</w>": 4038,
        "Slayer</w>": 4039,
        "August</w>": 4040,
        "mother</w>": 4041,
        "months</w>": 4042,
        "entary</w>": 4043,
        "enough</w>": 4044,
        "esting</w>": 4045,
        "nesses</w>": 4046,
        "iately</w>": 4047,
        "wooden</w>": 4048,
        "Mongol</w>": 4049,
        "modern</w>": 4050,
        "fought</w>": 4051,
        "should</w>": 4052,
        "eature</w>": 4053,
        "Donald</w>": 4054,
        "sought</w>": 4055,
        "nsible</w>": 4056,
        "placed</w>": 4057,
        "eption</w>": 4058,
        "listed</w>": 4059,
        "edical</w>": 4060,
        "astern</w>": 4061,
        "gnated</w>": 4062,
        "script</w>": 4063,
        "figure</w>": 4064,
        "office</w>": 4065,
        "cially</w>": 4066,
        "ssions</w>": 4067,
        "access</w>": 4068,
        "nicles</w>": 4069,
        "dmiral</w>": 4070,
        "ppears</w>": 4071,
        "around</w>": 4072,
        "France</w>": 4073,
        "eatest</w>": 4074,
        "lacing</w>": 4075,
        "Poland</w>": 4076,
        "critic</w>": 4077,
        "easons</w>": 4078,
        "inting</w>": 4079,
        "fourth</w>": 4080,
        "states</w>": 4081,
        "urtado</w>": 4082,
        "ricane</w>": 4083,
        "ncient</w>": 4084,
        "Cullen</w>": 4085,
        "Angela</w>": 4086,
        "nearby</w>": 4087,
        "ection</w>": 4088,
        "flight</w>": 4089,
        "lights</w>": 4090,
        "issues</w>": 4091,
        "iction</w>": 4092,
        "killed</w>": 4093,
        "opened</w>": 4094,
        "lboard</w>": 4095,
        "larger</w>": 4096,
        "elling</w>": 4097,
        "police</w>": 4098,
        "writer</w>": 4099,
        "illage</w>": 4100,
        "sports</w>": 4101,
        "atches</w>": 4102,
        "nnings</w>": 4103,
        "Avenue</w>": 4104,
        "friend</w>": 4105,
        "aining</w>": 4106,
        "Street</w>": 4107,
        "actors</w>": 4108,
        "social</w>": 4109,
        "system</w>": 4110,
        "etween</w>": 4111,
        "ration</w>": 4112,
        "caused</w>": 4113,
        "nature</w>": 4114,
        "Polish</w>": 4115,
        "cities</w>": 4116,
        "ivided</w>": 4117,
        "ington</w>": 4118,
        "piracy</w>": 4119,
        "ounded</w>": 4120,
        "twenty</w>": 4121,
        "career</w>": 4122,
        "single</w>": 4123,
        "idered</w>": 4124,
        "ynasty</w>": 4125,
        "anding</w>": 4126,
        "enters</w>": 4127,
        "Robert</w>": 4128,
        "Lesnar</w>": 4129,
        "guitar</w>": 4130,
        "albums</w>": 4131,
        "ghting</w>": 4132,
        "ishing</w>": 4133,
        "nother</w>": 4134,
        "onment</w>": 4135,
        "ooting</w>": 4136,
        "Office</w>": 4137,
        "enting</w>": 4138,
        "nstead</w>": 4139,
        "cliffe</w>": 4140,
        "inning</w>": 4141,
        "highly</w>": 4142,
        "eserve</w>": 4143,
        "ession</w>": 4144,
        "sfield</w>": 4145,
        "vasion</w>": 4146,
        "before</w>": 4147,
        "nister</w>": 4148,
        "record</w>": 4149,
        "icated</w>": 4150,
        "troops</w>": 4151,
        "Indian</w>": 4152,
        "minute</w>": 4153,
        "proved</w>": 4154,
        "change</w>": 4155,
        "ighway</w>": 4156,
        "design</w>": 4157,
        "ctures</w>": 4158,
        "intulu</w>": 4159,
        "ackets</w>": 4160,
        "ocated</w>": 4161,
        "icials</w>": 4162,
        "coming</w>": 4163,
        "iation</w>": 4164,
        "inside</w>": 4165,
        "ranked</w>": 4166,
        "rather</w>": 4167,
        "ficant</w>": 4168,
        "nadian</w>": 4169,
        "ements</w>": 4170,
        "sified</w>": 4171,
        "Barker</w>": 4172,
        "ndoned</w>": 4173,
        "nation</w>": 4174,
        "lanned</w>": 4175,
        "mental</w>": 4176,
        "nating</w>": 4177,
        "aguchi</w>": 4178,
        "events</w>": 4179,
        "unning</w>": 4180,
        "Graves</w>": 4181,
        "ferred</w>": 4182,
        "broken</w>": 4183,
        "laying</w>": 4184,
        "rights</w>": 4185,
        "attack</w>": 4186,
        "cident</w>": 4187,
        "ployed</w>": 4188,
        "ecause</w>": 4189,
        "search</w>": 4190,
        "public</w>": 4191,
        "ujillo</w>": 4192,
        "opical</w>": 4193,
        "effort</w>": 4194,
        "isions</w>": 4195,
        "selves</w>": 4196,
        "combat</w>": 4197,
        "cember</w>": 4198,
        "bruary</w>": 4199,
        "nwhile</w>": 4200,
        "review</w>": 4201,
        "feated</w>": 4202,
        "owever</w>": 4203,
        "rchill</w>": 4204,
        "idents</w>": 4205,
        "active</w>": 4206,
        "illion</w>": 4207,
        "reater</w>": 4208,
        "future</w>": 4209,
        "ancial</w>": 4210,
        "Beauty</w>": 4211,
        "Boston</w>": 4212,
        "Turner</w>": 4213,
        "Arthur</w>": 4214,
        "orders</w>": 4215,
        "making</w>": 4216,
        "pecies</w>": 4217,
        "little</w>": 4218,
        "moving</w>": 4219,
        "ppines</w>": 4220,
        "saying</w>": 4221,
        "sident</w>": 4222,
        "center</w>": 4223,
        "ffects</w>": 4224,
        "tating</w>": 4225,
        "During</w>": 4226,
        "imited</w>": 4227,
        "Korean</w>": 4228,
        "Kershaw</w>": 4229,
        "rection</w>": 4230,
        "istrict</w>": 4231,
        "Service</w>": 4232,
        "removed</w>": 4233,
        "ditions</w>": 4234,
        "primary</w>": 4235,
        "traffic</w>": 4236,
        "ccepted</w>": 4237,
        "ronclad</w>": 4238,
        "artists</w>": 4239,
        "America</w>": 4240,
        "control</w>": 4241,
        "onument</w>": 4242,
        "anwhile</w>": 4243,
        "fficial</w>": 4244,
        "ropical</w>": 4245,
        "awarded</w>": 4246,
        "history</w>": 4247,
        "example</w>": 4248,
        "pendent</w>": 4249,
        "Stevens</w>": 4250,
        "federal</w>": 4251,
        "nations</w>": 4252,
        "istance</w>": 4253,
        "quadron</w>": 4254,
        "ecurity</w>": 4255,
        "weapons</w>": 4256,
        "playing</w>": 4257,
        "itation</w>": 4258,
        "nspired</w>": 4259,
        "decided</w>": 4260,
        "Several</w>": 4261,
        "eastern</w>": 4262,
        "Kingdom</w>": 4263,
        "forward</w>": 4264,
        "working</w>": 4265,
        "passing</w>": 4266,
        "success</w>": 4267,
        "ristmas</w>": 4268,
        "ocation</w>": 4269,
        "General</w>": 4270,
        "pondyls</w>": 4271,
        "similar</w>": 4272,
        "century</w>": 4273,
        "feature</w>": 4274,
        "freeway</w>": 4275,
        "irected</w>": 4276,
        "meeting</w>": 4277,
        "Central</w>": 4278,
        "Michael</w>": 4279,
        "largest</w>": 4280,
        "prevent</w>": 4281,
        "company</w>": 4282,
        "include</w>": 4283,
        "current</w>": 4284,
        "ketball</w>": 4285,
        "village</w>": 4286,
        "Station</w>": 4287,
        "evision</w>": 4288,
        "African</w>": 4289,
        "William</w>": 4290,
        "Naktong</w>": 4291,
        "started</w>": 4292,
        "because</w>": 4293,
        "ivision</w>": 4294,
        "changed</w>": 4295,
        "onicles</w>": 4296,
        "central</w>": 4297,
        "largely</w>": 4298,
        "defense</w>": 4299,
        "ajority</w>": 4300,
        "espread</w>": 4301,
        "College</w>": 4302,
        "created</w>": 4303,
        "ilities</w>": 4304,
        "sidents</w>": 4305,
        "ainting</w>": 4306,
        "deities</w>": 4307,
        "heavily</w>": 4308,
        "thought</w>": 4309,
        "nfantry</w>": 4310,
        "western</w>": 4311,
        "already</w>": 4312,
        "cyclone</w>": 4313,
        "seconds</w>": 4314,
        "fluence</w>": 4315,
        "efeated</w>": 4316,
        "episode</w>": 4317,
        "agazine</w>": 4318,
        "however</w>": 4319,
        "writing</w>": 4320,
        "Charles</w>": 4321,
        "nancial</w>": 4322,
        "ability</w>": 4323,
        "schools</w>": 4324,
        "outside</w>": 4325,
        "fensive</w>": 4326,
        "Highway</w>": 4327,
        "shortly</w>": 4328,
        "ordered</w>": 4329,
        "figures</w>": 4330,
        "ficials</w>": 4331,
        "Angeles</w>": 4332,
        "ttacked</w>": 4333,
        "apanese</w>": 4334,
        "capital</w>": 4335,
        "ongside</w>": 4336,
        "culture</w>": 4337,
        "records</w>": 4338,
        "Furtado</w>": 4339,
        "present</w>": 4340,
        "esident</w>": 4341,
        "sources</w>": 4342,
        "Bintulu</w>": 4343,
        "utenant</w>": 4344,
        "onclads</w>": 4345,
        "ncluded</w>": 4346,
        "opening</w>": 4347,
        "Records</w>": 4348,
        "diately</w>": 4349,
        "taining</w>": 4350,
        "attempt</w>": 4351,
        "variety</w>": 4352,
        "Burmese</w>": 4353,
        "ttorney</w>": 4354,
        "cessary</w>": 4355,
        "vection</w>": 4356,
        "leaving</w>": 4357,
        "Academy</w>": 4358,
        "ddition</w>": 4359,
        "remains</w>": 4360,
        "stating</w>": 4361,
        "popular</w>": 4362,
        "setting</w>": 4363,
        "scoring</w>": 4364,
        "ncludes</w>": 4365,
        "British</w>": 4366,
        "players</w>": 4367,
        "critics</w>": 4368,
        "epublic</w>": 4369,
        "England</w>": 4370,
        "entered</w>": 4371,
        "ogether</w>": 4372,
        "matches</w>": 4373,
        "initial</w>": 4374,
        "arrived</w>": 4375,
        "ibility</w>": 4376,
        "brought</w>": 4377,
        "written</w>": 4378,
        "pointed</w>": 4379,
        "various</w>": 4380,
        "advance</w>": 4381,
        "irector</w>": 4382,
        "planned</w>": 4383,
        "numbers</w>": 4384,
        "victory</w>": 4385,
        "tensity</w>": 4386,
        "brother</w>": 4387,
        "armored</w>": 4388,
        "morning</w>": 4389,
        "project</w>": 4390,
        "ntained</w>": 4391,
        "Islands</w>": 4392,
        "Chinese</w>": 4393,
        "ination</w>": 4394,
        "dicated</w>": 4395,
        "ography</w>": 4396,
        "Despite</w>": 4397,
        "Natives</w>": 4398,
        "lightly</w>": 4399,
        "process</w>": 4400,
        "complex</w>": 4401,
        "Madonna</w>": 4402,
        "version</w>": 4403,
        "ippines</w>": 4404,
        "general</w>": 4405,
        "covered</w>": 4406,
        "officer</w>": 4407,
        "ebruary</w>": 4408,
        "Western</w>": 4409,
        "ecially</w>": 4410,
        "pattern</w>": 4411,
        "January</w>": 4412,
        "luenced</w>": 4413,
        "address</w>": 4414,
        "irborne</w>": 4415,
        "tanding</w>": 4416,
        "eaction</w>": 4417,
        "private</w>": 4418,
        "lanning</w>": 4419,
        "highway</w>": 4420,
        "English</w>": 4421,
        "tention</w>": 4422,
        "claimed</w>": 4423,
        "ciation</w>": 4424,
        "cularly</w>": 4425,
        "placing</w>": 4426,
        "Richard</w>": 4427,
        "llboard</w>": 4428,
        "ization</w>": 4429,
        "ntended</w>": 4430,
        "service</w>": 4431,
        "Pacific</w>": 4432,
        "esponse</w>": 4433,
        "nvasion</w>": 4434,
        "erected</w>": 4435,
        "certain</w>": 4436,
        "ainfall</w>": 4437,
        "through</w>": 4438,
        "hington</w>": 4439,
        "station</w>": 4440,
        "quickly</w>": 4441,
        "himself</w>": 4442,
        "minutes</w>": 4443,
        "ancient</w>": 4444,
        "damaged</w>": 4445,
        "divided</w>": 4446,
        "ecision</w>": 4447,
        "ircraft</w>": 4448,
        "Admiral</w>": 4449,
        "hooting</w>": 4450,
        "ssigned</w>": 4451,
        "pitcher</w>": 4452,
        "irectly</w>": 4453,
        "smaller</w>": 4454,
        "imately</w>": 4455,
        "classic</w>": 4456,
        "dvanced</w>": 4457,
        "species</w>": 4458,
        "ecoming</w>": 4459,
        "members</w>": 4460,
        "reduced</w>": 4461,
        "inished</w>": 4462,
        "ections</w>": 4463,
        "command</w>": 4464,
        "ication</w>": 4465,
        "Lorenzo</w>": 4466,
        "yweight</w>": 4467,
        "average</w>": 4468,
        "Brigade</w>": 4469,
        "esearch</w>": 4470,
        "related</w>": 4471,
        "aseball</w>": 4472,
        "reatest</w>": 4473,
        "limited</w>": 4474,
        "refused</w>": 4475,
        "between</w>": 4476,
        "osition</w>": 4477,
        "McCarty</w>": 4478,
        "usually</w>": 4479,
        "tations</w>": 4480,
        "Jackets</w>": 4481,
        "edition</w>": 4482,
        "country</w>": 4483,
        "assador</w>": 4484,
        "spiracy</w>": 4485,
        "inister</w>": 4486,
        "special</w>": 4487,
        "attacks</w>": 4488,
        "instead</w>": 4489,
        "eported</w>": 4490,
        "portion</w>": 4491,
        "onsible</w>": 4492,
        "against</w>": 4493,
        "Classic</w>": 4494,
        "cluding</w>": 4495,
        "Beckham</w>": 4496,
        "pective</w>": 4497,
        "concert</w>": 4498,
        "starred</w>": 4499,
        "Another</w>": 4500,
        "sidered</w>": 4501,
        "typhoon</w>": 4502,
        "several</w>": 4503,
        "anadian</w>": 4504,
        "eridian</w>": 4505,
        "actions</w>": 4506,
        "However</w>": 4507,
        "ational</w>": 4508,
        "rapidly</w>": 4509,
        "Britain</w>": 4510,
        "pressed</w>": 4511,
        "emperor</w>": 4512,
        "serious</w>": 4513,
        "ossible</w>": 4514,
        "carried</w>": 4515,
        "dcliffe</w>": 4516,
        "another</w>": 4517,
        "eployed</w>": 4518,
        "ootball</w>": 4519,
        "eceived</w>": 4520,
        "eplaced</w>": 4521,
        "blished</w>": 4522,
        "ighting</w>": 4523,
        "appears</w>": 4524,
        "fficers</w>": 4525,
        "urchill</w>": 4526,
        "despite</w>": 4527,
        "overall</w>": 4528,
        "earlier</w>": 4529,
        "Koreans</w>": 4530,
        "ificant</w>": 4531,
        "Italian</w>": 4532,
        "esigned</w>": 4533,
        "cations</w>": 4534,
        "million</w>": 4535,
        "greater</w>": 4536,
        "zations</w>": 4537,
        "nsisted</w>": 4538,
        "acement</w>": 4539,
        "Russian</w>": 4540,
        "towards</w>": 4541,
        "reviews</w>": 4542,
        "ospital</w>": 4543,
        "allowed</w>": 4544,
        "located</w>": 4545,
        "andoned</w>": 4546,
        "changes</w>": 4547,
        "landing</w>": 4548,
        "seasons</w>": 4549,
        "Saprang</w>": 4550,
        "subject</w>": 4551,
        "defence</w>": 4552,
        "Zealand</w>": 4553,
        "embassy</w>": 4554,
        "dynasty</w>": 4555,
        "finally</w>": 4556,
        "mission</w>": 4557,
        "Ireland</w>": 4558,
        "support</w>": 4559,
        "further</w>": 4560,
        "reached</w>": 4561,
        "wounded</w>": 4562,
        "winning</w>": 4563,
        "crossed</w>": 4564,
        "Company</w>": 4565,
        "Germany</w>": 4566,
        "ampaign</w>": 4567,
        "rujillo</w>": 4568,
        "offered</w>": 4569,
        "rricane</w>": 4570,
        "ociated</w>": 4571,
        "ignated</w>": 4572,
        "ecember</w>": 4573,
        "leships</w>": 4574,
        "section</w>": 4575,
        "produce</w>": 4576,
        "provide</w>": 4577,
        "running</w>": 4578,
        "ilitary</w>": 4579,
        "praised</w>": 4580,
        "leading</w>": 4581,
        "October</w>": 4582,
        "regular</w>": 4583,
        "highest</w>": 4584,
        "torpedo</w>": 4585,
        "waguchi</w>": 4586,
        "release</w>": 4587,
        "without</w>": 4588,
        "Columbus</w>": 4589,
        "fication</w>": 4590,
        "Carolina</w>": 4591,
        "ronicles</w>": 4592,
        "designed</w>": 4593,
        "contract</w>": 4594,
        "nfluence</w>": 4595,
        "Michigan</w>": 4596,
        "lippines</w>": 4597,
        "although</w>": 4598,
        "approach</w>": 4599,
        "separate</w>": 4600,
        "included</w>": 4601,
        "irection</w>": 4602,
        "attalion</w>": 4603,
        "combined</w>": 4604,
        "probably</w>": 4605,
        "bandoned</w>": 4606,
        "becoming</w>": 4607,
        "official</w>": 4608,
        "audience</w>": 4609,
        "revealed</w>": 4610,
        "infantry</w>": 4611,
        "esidents</w>": 4612,
        "defeated</w>": 4613,
        "launched</w>": 4614,
        "eanwhile</w>": 4615,
        "reaction</w>": 4616,
        "February</w>": 4617,
        "signated</w>": 4618,
        "involved</w>": 4619,
        "crossing</w>": 4620,
        "nvection</w>": 4621,
        "received</w>": 4622,
        "straight</w>": 4623,
        "appeared</w>": 4624,
        "fighting</w>": 4625,
        "inspired</w>": 4626,
        "includes</w>": 4627,
        "attempts</w>": 4628,
        "referred</w>": 4629,
        "Infantry</w>": 4630,
        "scovered</w>": 4631,
        "ynagogue</w>": 4632,
        "resulted</w>": 4633,
        "accepted</w>": 4634,
        "compared</w>": 4635,
        "increase</w>": 4636,
        "colossal</w>": 4637,
        "ncluding</w>": 4638,
        "magazine</w>": 4639,
        "urricane</w>": 4640,
        "Trujillo</w>": 4641,
        "operated</w>": 4642,
        "tropical</w>": 4643,
        "continue</w>": 4644,
        "problems</w>": 4645,
        "Republic</w>": 4646,
        "starting</w>": 4647,
        "evidence</w>": 4648,
        "rainfall</w>": 4649,
        "slightly</w>": 4650,
        "required</w>": 4651,
        "ociation</w>": 4652,
        "Clarkson</w>": 4653,
        "recorded</w>": 4654,
        "ectively</w>": 4655,
        "decision</w>": 4656,
        "Mountain</w>": 4657,
        "cruisers</w>": 4658,
        "fluenced</w>": 4659,
        "sequence</w>": 4660,
        "ponsible</w>": 4661,
        "ablished</w>": 4662,
        "language</w>": 4663,
        "despread</w>": 4664,
        "sibility</w>": 4665,
        "officers</w>": 4666,
        "inancial</w>": 4667,
        "ximately</w>": 4668,
        "pecially</w>": 4669,
        "ccording</w>": 4670,
        "aircraft</w>": 4671,
        "Victoria</w>": 4672,
        "December</w>": 4673,
        "November</w>": 4674,
        "featured</w>": 4675,
        "directed</w>": 4676,
        "provided</w>": 4677,
        "Austrian</w>": 4678,
        "football</w>": 4679,
        "released</w>": 4680,
        "ological</w>": 4681,
        "sections</w>": 4682,
        "nditions</w>": 4683,
        "business</w>": 4684,
        "Squadron</w>": 4685,
        "personal</w>": 4686,
        "ediately</w>": 4687,
        "intended</w>": 4688,
        "ications</w>": 4689,
        "security</w>": 4690,
        "actually</w>": 4691,
        "religion</w>": 4692,
        "northern</w>": 4693,
        "occupied</w>": 4694,
        "spondyls</w>": 4695,
        "division</w>": 4696,
        "Meridian</w>": 4697,
        "material</w>": 4698,
        "efensive</w>": 4699,
        "deployed</w>": 4700,
        "Northern</w>": 4701,
        "illboard</w>": 4702,
        "nspiracy</w>": 4703,
        "remained</w>": 4704,
        "military</w>": 4705,
        "proposed</w>": 4706,
        "shooting</w>": 4707,
        "European</w>": 4708,
        "governor</w>": 4709,
        "Townsend</w>": 4710,
        "composed</w>": 4711,
        "hurchill</w>": 4712,
        "quadrons</w>": 4713,
        "sination</w>": 4714,
        "resident</w>": 4715,
        "extended</w>": 4716,
        "strength</w>": 4717,
        "Regiment</w>": 4718,
        "eaddress</w>": 4719,
        "attacked</w>": 4720,
        "shington</w>": 4721,
        "Canadian</w>": 4722,
        "lacement</w>": 4723,
        "original</w>": 4724,
        "finished</w>": 4725,
        "assigned</w>": 4726,
        "returned</w>": 4727,
        "produced</w>": 4728,
        "directly</w>": 4729,
        "selected</w>": 4730,
        "campaign</w>": 4731,
        "Markgraf</w>": 4732,
        "occurred</w>": 4733,
        "ecessary</w>": 4734,
        "eutenant</w>": 4735,
        "standing</w>": 4736,
        "presence</w>": 4737,
        "southern</w>": 4738,
        "training</w>": 4739,
        "Valkyria</w>": 4740,
        "hristmas</w>": 4741,
        "sketball</w>": 4742,
        "together</w>": 4743,
        "position</w>": 4744,
        "elements</w>": 4745,
        "ironclad</w>": 4746,
        "addition</w>": 4747,
        "ntensity</w>": 4748,
        "daughter</w>": 4749,
        "building</w>": 4750,
        "ffensive</w>": 4751,
        "greatest</w>": 4752,
        "declared</w>": 4753,
        "captured</w>": 4754,
        "reported</w>": 4755,
        "industry</w>": 4756,
        "location</w>": 4757,
        "Egyptian</w>": 4758,
        "tleships</w>": 4759,
        "ronclads</w>": 4760,
        "warships</w>": 4761,
        "American</w>": 4762,
        "Tropical</w>": 4763,
        "allowing</w>": 4764,
        "ditional</w>": 4765,
        "National</w>": 4766,
        "complete</w>": 4767,
        "previous</w>": 4768,
        "national</w>": 4769,
        "downtown</w>": 4770,
        "adcliffe</w>": 4771,
        "features</w>": 4772,
        "critical</w>": 4773,
        "movement</w>": 4774,
        "monument</w>": 4775,
        "lization</w>": 4776,
        "ependent</w>": 4777,
        "planning</w>": 4778,
        "believed</w>": 4779,
        "response</w>": 4780,
        "replaced</w>": 4781,
        "soldiers</w>": 4782,
        "nificant</w>": 4783,
        "positive</w>": 4784,
        "cultural</w>": 4785,
        "onsisted</w>": 4786,
        "sistance</w>": 4787,
        "awaguchi</w>": 4788,
        "Imperial</w>": 4789,
        "ttention</w>": 4790,
        "Division</w>": 4791,
        "Although</w>": 4792,
        "Richmond</w>": 4793,
        "children</w>": 4794,
        "promoted</w>": 4795,
        "sociated</w>": 4796,
        "followed</w>": 4797,
        "pressure</w>": 4798,
        "activity</w>": 4799,
        "nsidered</w>": 4800,
        "director</w>": 4801,
        "suffered</w>": 4802,
        "election</w>": 4803,
        "ppointed</w>": 4804,
        "fficials</w>": 4805,
        "majority</w>": 4806,
        "Japanese</w>": 4807,
        "invasion</w>": 4808,
        "expected</w>": 4809,
        "possible</w>": 4810,
        "District</w>": 4811,
        "supplies</w>": 4812,
        "squadron</w>": 4813,
        "buildings</w>": 4814,
        "recording</w>": 4815,
        "onspiracy</w>": 4816,
        "featuring</w>": 4817,
        "onsidered</w>": 4818,
        "available</w>": 4819,
        "interview</w>": 4820,
        "positions</w>": 4821,
        "pectively</w>": 4822,
        "community</w>": 4823,
        "estimated</w>": 4824,
        "defensive</w>": 4825,
        "important</w>": 4826,
        "temporary</w>": 4827,
        "Americans</w>": 4828,
        "attalions</w>": 4829,
        "conducted</w>": 4830,
        "tablished</w>": 4831,
        "northwest</w>": 4832,
        "performed</w>": 4833,
        "residents</w>": 4834,
        "Billboard</w>": 4835,
        "artillery</w>": 4836,
        "idespread</w>": 4837,
        "epression</w>": 4838,
        "religious</w>": 4839,
        "ironclads</w>": 4840,
        "abandoned</w>": 4841,
        "different</w>": 4842,
        "iscovered</w>": 4843,
        "consisted</w>": 4844,
        "Operation</w>": 4845,
        "attempted</w>": 4846,
        "Kawaguchi</w>": 4847,
        "asketball</w>": 4848,
        "asualties</w>": 4849,
        "northeast</w>": 4850,
        "operation</w>": 4851,
        "ilippines</w>": 4852,
        "President</w>": 4853,
        "ttleships</w>": 4854,
        "announced</w>": 4855,
        "character</w>": 4856,
        "described</w>": 4857,
        "battalion</w>": 4858,
        "Australia</w>": 4859,
        "published</w>": 4860,
        "intensity</w>": 4861,
        "sponsible</w>": 4862,
        "initially</w>": 4863,
        "September</w>": 4864,
        "placement</w>": 4865,
        "beginning</w>": 4866,
        "transport</w>": 4867,
        "ieutenant</w>": 4868,
        "ashington</w>": 4869,
        "represent</w>": 4870,
        "nfluenced</w>": 4871,
        "formation</w>": 4872,
        "offensive</w>": 4873,
        "attention</w>": 4874,
        "sculpture</w>": 4875,
        "onditions</w>": 4876,
        "perimeter</w>": 4877,
        "continues</w>": 4878,
        "resulting</w>": 4879,
        "niversity</w>": 4880,
        "onvection</w>": 4881,
        "Shikamaru</w>": 4882,
        "surviving</w>": 4883,
        "structure</w>": 4884,
        "commented</w>": 4885,
        "Gibraltar</w>": 4886,
        "destroyed</w>": 4887,
        "increased</w>": 4888,
        "sustained</w>": 4889,
        "necessary</w>": 4890,
        "ssination</w>": 4891,
        "ssociated</w>": 4892,
        "dependent</w>": 4893,
        "developed</w>": 4894,
        "esignated</w>": 4895,
        "epartment</w>": 4896,
        "sociation</w>": 4897,
        "president</w>": 4898,
        "According</w>": 4899,
        "including</w>": 4900,
        "following</w>": 4901,
        "education</w>": 4902,
        "hurricane</w>": 4903,
        "companies</w>": 4904,
        "commander</w>": 4905,
        "ospondyls</w>": 4906,
        "Christian</w>": 4907,
        "nsecutive</w>": 4908,
        "Christmas</w>": 4909,
        "Following</w>": 4910,
        "remaining</w>": 4911,
        "Churchill</w>": 4912,
        "sometimes</w>": 4913,
        "prominent</w>": 4914,
        "generally</w>": 4915,
        "Radcliffe</w>": 4916,
        "officials</w>": 4917,
        "alongside</w>": 4918,
        "difficult</w>": 4919,
        "according</w>": 4920,
        "organized</w>": 4921,
        "currently</w>": 4922,
        "primarily</w>": 4923,
        "personnel</w>": 4924,
        "dditional</w>": 4925,
        "specially</w>": 4926,
        "synagogue</w>": 4927,
        "gnificant</w>": 4928,
        "completed</w>": 4929,
        "Tetrarchs</w>": 4930,
        "political</w>": 4931,
        "mediately</w>": 4932,
        "supported</w>": 4933,
        "ification</w>": 4934,
        "headdress</w>": 4935,
        "appointed</w>": 4936,
        "influence</w>": 4937,
        "suggested</w>": 4938,
        "continued</w>": 4939,
        "Battalion</w>": 4940,
        "monuments</w>": 4941,
        "onference</w>": 4942,
        "situation</w>": 4943,
        "ignificant</w>": 4944,
        "Commission</w>": 4945,
        "ultimately</w>": 4946,
        "Department</w>": 4947,
        "esponsible</w>": 4948,
        "ndependent</w>": 4949,
        "assination</w>": 4950,
        "population</w>": 4951,
        "controlled</w>": 4952,
        "cemeteries</w>": 4953,
        "onsecutive</w>": 4954,
        "stablished</w>": 4955,
        "hilippines</w>": 4956,
        "conspiracy</w>": 4957,
        "Washington</w>": 4958,
        "activities</w>": 4959,
        "ditionally</w>": 4960,
        "previously</w>": 4961,
        "designated</w>": 4962,
        "considered</w>": 4963,
        "ampionship</w>": 4964,
        "characters</w>": 4965,
        "casualties</w>": 4966,
        "television</w>": 4967,
        "structures</w>": 4968,
        "especially</w>": 4969,
        "Government</w>": 4970,
        "eventually</w>": 4971,
        "identified</w>": 4972,
        "mmediately</w>": 4973,
        "originally</w>": 4974,
        "widespread</w>": 4975,
        "themselves</w>": 4976,
        "convection</w>": 4977,
        "relatively</w>": 4978,
        "nformation</w>": 4979,
        "experience</w>": 4980,
        "Conference</w>": 4981,
        "evacuation</w>": 4982,
        "introduced</w>": 4983,
        "individual</w>": 4984,
        "associated</w>": 4985,
        "attleships</w>": 4986,
        "throughout</w>": 4987,
        "appearance</w>": 4988,
        "government</w>": 4989,
        "commercial</w>": 4990,
        "ntemporary</w>": 4991,
        "production</w>": 4992,
        "basketball</w>": 4993,
        "Australian</w>": 4994,
        "operations</w>": 4995,
        "ssociation</w>": 4996,
        "influenced</w>": 4997,
        "particular</w>": 4998,
        "additional</w>": 4999,
        "completely</w>": 5000,
        "depression</w>": 5001,
        "kilometres</w>": 5002,
        "successful</w>": 5003,
        "conditions</w>": 5004,
        "University</w>": 5005,
        "discovered</w>": 5006,
        "spectively</w>": 5007,
        "represented</w>": 5008,
        "constructed</w>": 5009,
        "espectively</w>": 5010,
        "established</w>": 5011,
        "surrounding</w>": 5012,
        "immediately</w>": 5013,
        "Australians</w>": 5014,
        "Association</w>": 5015,
        "development</w>": 5016,
        "traditional</w>": 5017,
        "sassination</w>": 5018,
        "consecutive</w>": 5019,
        "performance</w>": 5020,
        "interchange</w>": 5021,
        "ntelligence</w>": 5022,
        "underground</w>": 5023,
        "competition</w>": 5024,
        "responsible</w>": 5025,
        "transferred</w>": 5026,
        "hampionship</w>": 5027,
        "ontemporary</w>": 5028,
        "battleships</w>": 5029,
        "significant</w>": 5030,
        "eadquarters</w>": 5031,
        "experienced</w>": 5032,
        "Scientology</w>": 5033,
        "Heavyweight</w>": 5034,
        "Philippines</w>": 5035,
        "Championship</w>": 5036,
        "successfully</w>": 5037,
        "subsequently</w>": 5038,
        "Commonwealth</w>": 5039,
        "professional</w>": 5040,
        "intelligence</w>": 5041,
        "performances</w>": 5042,
        "ssassination</w>": 5043,
        "participated</w>": 5044,
        "respectively</w>": 5045,
        "championship</w>": 5046,
        "organization</w>": 5047,
        "construction</w>": 5048,
        "contemporary</w>": 5049,
        "particularly</w>": 5050,
        "International</w>": 5051,
        "assassination</w>": 5052,
        "temnospondyls</w>": 5053,
        "approximately</w>": 5054,
        "international</w>": 5055,
        "Scientologists</w>": 5056
    },
    "merge": [
        [
            "e",
            "</w>"
        ],
        [
            "s",
            "</w>"
        ],
        [
            "t",
            "h"
        ],
        [
            "d",
            "</w>"
        ],
        [
            "n",
            "</w>"
        ],
        [
            "e",
            "r"
        ],
        [
            "t",
            "</w>"
        ],
        [
            "th",
            "e</w>"
        ],
        [
            "e",
            "d</w>"
        ],
        [
            "y",
            "</w>"
        ],
        [
            "o",
            "r"
        ],
        [
            "a",
            "r"
        ],
        [
            "a",
            "l"
        ],
        [
            "n",
            "g"
        ],
        [
            "t",
            "i"
        ],
        [
            "o",
            "</w>"
        ],
        [
            "n",
            "d</w>"
        ],
        [
            "f",
            "</w>"
        ],
        [
            "o",
            "f</w>"
        ],
        [
            "a",
            "</w>"
        ],
        [
            "a",
            "nd</w>"
        ],
        [
            "er",
            "</w>"
        ],
        [
            "ng",
            "</w>"
        ],
        [
            "o",
            "n</w>"
        ],
        [
            "i",
            "n</w>"
        ],
        [
            "o",
            "u"
        ],
        [
            "t",
            "o</w>"
        ],
        [
            "a",
            "s</w>"
        ],
        [
            "e",
            "s</w>"
        ],
        [
            "i",
            "ng</w>"
        ],
        [
            "o",
            "m"
        ],
        [
            "c",
            "h"
        ],
        [
            "e",
            "l"
        ],
        [
            "t",
            "r"
        ],
        [
            "a",
            "n</w>"
        ],
        [
            "h",
            "e</w>"
        ],
        [
            "al",
            "</w>"
        ],
        [
            "a",
            "t</w>"
        ],
        [
            "th",
            "</w>"
        ],
        [
            "i",
            "s</w>"
        ],
        [
            "a",
            "m"
        ],
        [
            "o",
            "l"
        ],
        [
            "f",
            "or"
        ],
        [
            "s",
            "t</w>"
        ],
        [
            "e",
            "m"
        ],
        [
            "t",
            "ed</w>"
        ],
        [
            "w",
            "as</w>"
        ],
        [
            "p",
            "r"
        ],
        [
            "o",
            "w"
        ],
        [
            "a",
            "ti"
        ],
        [
            "e",
            "n</w>"
        ],
        [
            "t",
            "s</w>"
        ],
        [
            "l",
            "y</w>"
        ],
        [
            "T",
            "he</w>"
        ],
        [
            "n",
            "t</w>"
        ],
        [
            "k",
            "</w>"
        ],
        [
            "n",
            "s</w>"
        ],
        [
            "e",
            "v"
        ],
        [
            "s",
            "u"
        ],
        [
            "c",
            "e</w>"
        ],
        [
            "l",
            "e</w>"
        ],
        [
            "ch",
            "</w>"
        ],
        [
            "t",
            "u"
        ],
        [
            "a",
            "g"
        ],
        [
            "th",
            "at</w>"
        ],
        [
            "n",
            "e</w>"
        ],
        [
            "er",
            "e</w>"
        ],
        [
            "i",
            "th</w>"
        ],
        [
            "t",
            "e</w>"
        ],
        [
            "t",
            "er</w>"
        ],
        [
            "b",
            "y</w>"
        ],
        [
            "o",
            "v"
        ],
        [
            "e",
            "nt</w>"
        ],
        [
            "for",
            "</w>"
        ],
        [
            "s",
            "e</w>"
        ],
        [
            "w",
            "ith</w>"
        ],
        [
            "t",
            "er"
        ],
        [
            "f",
            "r"
        ],
        [
            "a",
            "v"
        ],
        [
            "a",
            "d</w>"
        ],
        [
            "ar",
            "</w>"
        ],
        [
            "b",
            "u"
        ],
        [
            "or",
            "</w>"
        ],
        [
            "i",
            "ti"
        ],
        [
            "al",
            "l"
        ],
        [
            "c",
            "r"
        ],
        [
            "s",
            "tr"
        ],
        [
            "t",
            "y</w>"
        ],
        [
            "om",
            "</w>"
        ],
        [
            "c",
            "om"
        ],
        [
            "th",
            "e"
        ],
        [
            "h",
            "is</w>"
        ],
        [
            "p",
            "</w>"
        ],
        [
            "ati",
            "on</w>"
        ],
        [
            "w",
            "ere</w>"
        ],
        [
            "i",
            "t</w>"
        ],
        [
            "c",
            "</w>"
        ],
        [
            "a",
            "y</w>"
        ],
        [
            "e",
            "x"
        ],
        [
            "fr",
            "om</w>"
        ],
        [
            "c",
            "ti"
        ],
        [
            "e",
            "g"
        ],
        [
            "d",
            "u"
        ],
        [
            "s",
            "ed</w>"
        ],
        [
            "tu",
            "r"
        ],
        [
            "p",
            "er"
        ],
        [
            "n",
            "ce</w>"
        ],
        [
            "c",
            "u"
        ],
        [
            "d",
            "s</w>"
        ],
        [
            "i",
            "on</w>"
        ],
        [
            "o",
            "ns</w>"
        ],
        [
            "d",
            "e</w>"
        ],
        [
            "er",
            "s</w>"
        ],
        [
            "n",
            "u"
        ],
        [
            "n",
            "ed</w>"
        ],
        [
            "a",
            "u"
        ],
        [
            "pr",
            "o"
        ],
        [
            "n",
            "ti"
        ],
        [
            "ou",
            "r"
        ],
        [
            "a",
            "ted</w>"
        ],
        [
            "t",
            "or"
        ],
        [
            "i",
            "ty</w>"
        ],
        [
            "q",
            "u"
        ],
        [
            "d",
            "ed</w>"
        ],
        [
            "a",
            "te</w>"
        ],
        [
            "e",
            "ar"
        ],
        [
            "c",
            "k</w>"
        ],
        [
            "r",
            "ou"
        ],
        [
            "v",
            "e</w>"
        ],
        [
            "s",
            "s</w>"
        ],
        [
            "d",
            "ing</w>"
        ],
        [
            "e",
            "en</w>"
        ],
        [
            "h",
            "ad</w>"
        ],
        [
            "t",
            "w"
        ],
        [
            "th",
            "er</w>"
        ],
        [
            "o",
            "t</w>"
        ],
        [
            "i",
            "c</w>"
        ],
        [
            "b",
            "er</w>"
        ],
        [
            "p",
            "ar"
        ],
        [
            "l",
            "d</w>"
        ],
        [
            "all",
            "</w>"
        ],
        [
            "i",
            "ch</w>"
        ],
        [
            "p",
            "or"
        ],
        [
            "tr",
            "a"
        ],
        [
            "o",
            "ne</w>"
        ],
        [
            "am",
            "e</w>"
        ],
        [
            "h",
            "ich</w>"
        ],
        [
            "w",
            "hich</w>"
        ],
        [
            "s",
            "ti"
        ],
        [
            "n",
            "al</w>"
        ],
        [
            "i",
            "es</w>"
        ],
        [
            "e",
            "st</w>"
        ],
        [
            "h",
            "t</w>"
        ],
        [
            "g",
            "ht</w>"
        ],
        [
            "p",
            "u"
        ],
        [
            "I",
            "n</w>"
        ],
        [
            "o",
            "ng</w>"
        ],
        [
            "pr",
            "e"
        ],
        [
            "s",
            "o</w>"
        ],
        [
            "e",
            "t</w>"
        ],
        [
            "ou",
            "t</w>"
        ],
        [
            "al",
            "i"
        ],
        [
            "ar",
            "e</w>"
        ],
        [
            "el",
            "l"
        ],
        [
            "ar",
            "y</w>"
        ],
        [
            "b",
            "e</w>"
        ],
        [
            "i",
            "ng"
        ],
        [
            "i",
            "ts</w>"
        ],
        [
            "d",
            "er</w>"
        ],
        [
            "n",
            "ts</w>"
        ],
        [
            "ol",
            "l"
        ],
        [
            "s",
            "ion</w>"
        ],
        [
            "A",
            "</w>"
        ],
        [
            "d",
            "er"
        ],
        [
            "al",
            "ly</w>"
        ],
        [
            "ow",
            "n</w>"
        ],
        [
            "for",
            "m"
        ],
        [
            "n",
            "ing</w>"
        ],
        [
            "t",
            "em"
        ],
        [
            "c",
            "or"
        ],
        [
            "av",
            "e</w>"
        ],
        [
            "m",
            "ent</w>"
        ],
        [
            "ou",
            "n"
        ],
        [
            "am",
            "</w>"
        ],
        [
            "ow",
            "</w>"
        ],
        [
            "c",
            "t</w>"
        ],
        [
            "f",
            "u"
        ],
        [
            "s",
            "on</w>"
        ],
        [
            "i",
            "ne</w>"
        ],
        [
            "e",
            "y</w>"
        ],
        [
            "cti",
            "on</w>"
        ],
        [
            "i",
            "d</w>"
        ],
        [
            "the",
            "i"
        ],
        [
            "n",
            "y</w>"
        ],
        [
            "i",
            "a</w>"
        ],
        [
            "c",
            "al</w>"
        ],
        [
            "thei",
            "r"
        ],
        [
            "their",
            "</w>"
        ],
        [
            "e",
            "e</w>"
        ],
        [
            "f",
            "ter</w>"
        ],
        [
            "bu",
            "t</w>"
        ],
        [
            "r",
            "st</w>"
        ],
        [
            "ar",
            "r"
        ],
        [
            "el",
            "</w>"
        ],
        [
            "a",
            "in</w>"
        ],
        [
            "n",
            "ot</w>"
        ],
        [
            "b",
            "le</w>"
        ],
        [
            "al",
            "so</w>"
        ],
        [
            "B",
            "r"
        ],
        [
            "i",
            "rst</w>"
        ],
        [
            "m",
            "e</w>"
        ],
        [
            "i",
            "ght</w>"
        ],
        [
            "s",
            "er"
        ],
        [
            "ou",
            "ld</w>"
        ],
        [
            "r",
            "ing</w>"
        ],
        [
            "k",
            "e</w>"
        ],
        [
            "r",
            "e</w>"
        ],
        [
            "w",
            "or"
        ],
        [
            "ag",
            "e</w>"
        ],
        [
            "A",
            "u"
        ],
        [
            "i",
            "an</w>"
        ],
        [
            "a",
            "st</w>"
        ],
        [
            "p",
            "s</w>"
        ],
        [
            "c",
            "ed</w>"
        ],
        [
            "o",
            "st</w>"
        ],
        [
            "n",
            "tr"
        ],
        [
            "ov",
            "er"
        ],
        [
            "f",
            "irst</w>"
        ],
        [
            "e",
            "ar</w>"
        ],
        [
            "n",
            "ter"
        ],
        [
            "ar",
            "d</w>"
        ],
        [
            "com",
            "m"
        ],
        [
            "e",
            "ss</w>"
        ],
        [
            "c",
            "es</w>"
        ],
        [
            "o",
            "ther</w>"
        ],
        [
            "k",
            "s</w>"
        ],
        [
            "a",
            "ny</w>"
        ],
        [
            "r",
            "el"
        ],
        [
            "t",
            "es</w>"
        ],
        [
            "v",
            "er"
        ],
        [
            "tw",
            "o</w>"
        ],
        [
            "n",
            "es</w>"
        ],
        [
            "o",
            "nal</w>"
        ],
        [
            "i",
            "al</w>"
        ],
        [
            "b",
            "een</w>"
        ],
        [
            "com",
            "p"
        ],
        [
            "our",
            "</w>"
        ],
        [
            "a",
            "nce</w>"
        ],
        [
            "or",
            "e</w>"
        ],
        [
            "e",
            "nts</w>"
        ],
        [
            "h",
            "ave</w>"
        ],
        [
            "l",
            "ed</w>"
        ],
        [
            "s",
            "tor"
        ],
        [
            "a",
            "ng"
        ],
        [
            "h",
            "as</w>"
        ],
        [
            "om",
            "e</w>"
        ],
        [
            "H",
            "e</w>"
        ],
        [
            "pr",
            "i"
        ],
        [
            "h",
            "er</w>"
        ],
        [
            "er",
            "i"
        ],
        [
            "i",
            "ve</w>"
        ],
        [
            "i",
            "ed</w>"
        ],
        [
            "g",
            "e</w>"
        ],
        [
            "cr",
            "e"
        ],
        [
            "e",
            "nce</w>"
        ],
        [
            "el",
            "y</w>"
        ],
        [
            "i",
            "de</w>"
        ],
        [
            "a",
            "ck</w>"
        ],
        [
            "ch",
            "i"
        ],
        [
            "f",
            "t</w>"
        ],
        [
            "th",
            "is</w>"
        ],
        [
            "l",
            "es</w>"
        ],
        [
            "A",
            "l"
        ],
        [
            "I",
            "</w>"
        ],
        [
            "a",
            "ns</w>"
        ],
        [
            "n",
            "to</w>"
        ],
        [
            "h",
            "o</w>"
        ],
        [
            "th",
            "r"
        ],
        [
            "A",
            "m"
        ],
        [
            "l",
            "ar"
        ],
        [
            "c",
            "an</w>"
        ],
        [
            "ti",
            "ng</w>"
        ],
        [
            "a",
            "ter</w>"
        ],
        [
            "v",
            "ed</w>"
        ],
        [
            "pre",
            "s"
        ],
        [
            "i",
            "le</w>"
        ],
        [
            "a",
            "nt</w>"
        ],
        [
            "a",
            "fter</w>"
        ],
        [
            "i",
            "ned</w>"
        ],
        [
            "c",
            "ted</w>"
        ],
        [
            "k",
            "ing</w>"
        ],
        [
            "ou",
            "s</w>"
        ],
        [
            "w",
            "ho</w>"
        ],
        [
            "S",
            "</w>"
        ],
        [
            "ou",
            "nd</w>"
        ],
        [
            "the",
            "y</w>"
        ],
        [
            "e",
            "nti"
        ],
        [
            "ti",
            "me</w>"
        ],
        [
            "t",
            "ly</w>"
        ],
        [
            "r",
            "em"
        ],
        [
            "f",
            "er"
        ],
        [
            "s",
            "es</w>"
        ],
        [
            "m",
            "an</w>"
        ],
        [
            "w",
            "ay</w>"
        ],
        [
            "ol",
            "o"
        ],
        [
            "ati",
            "ons</w>"
        ],
        [
            "i",
            "nto</w>"
        ],
        [
            "ev",
            "i"
        ],
        [
            "o",
            "d</w>"
        ],
        [
            "h",
            "ere</w>"
        ],
        [
            "i",
            "p</w>"
        ],
        [
            "r",
            "ed</w>"
        ],
        [
            "er",
            "al</w>"
        ],
        [
            "s",
            "ing</w>"
        ],
        [
            "h",
            "en</w>"
        ],
        [
            "e",
            "ad</w>"
        ],
        [
            "ou",
            "g"
        ],
        [
            "n",
            "der</w>"
        ],
        [
            "a",
            "ce</w>"
        ],
        [
            "B",
            "u"
        ],
        [
            "e",
            "nd</w>"
        ],
        [
            "i",
            "cal</w>"
        ],
        [
            "o",
            "ng"
        ],
        [
            "n",
            "ds</w>"
        ],
        [
            "J",
            "u"
        ],
        [
            "ell",
            "</w>"
        ],
        [
            "ov",
            "er</w>"
        ],
        [
            "k",
            "ed</w>"
        ],
        [
            "tur",
            "e</w>"
        ],
        [
            "i",
            "ted</w>"
        ],
        [
            "n",
            "ly</w>"
        ],
        [
            "I",
            "t</w>"
        ],
        [
            "a",
            "de</w>"
        ],
        [
            "e",
            "qu"
        ],
        [
            "am",
            "p"
        ],
        [
            "i",
            "te</w>"
        ],
        [
            "Au",
            "str"
        ],
        [
            "M",
            "ar"
        ],
        [
            "m",
            "ore</w>"
        ],
        [
            "du",
            "ring</w>"
        ],
        [
            "oug",
            "h"
        ],
        [
            "a",
            "ble</w>"
        ],
        [
            "i",
            "nter"
        ],
        [
            "o",
            "nd</w>"
        ],
        [
            "h",
            "ile</w>"
        ],
        [
            "n",
            "a</w>"
        ],
        [
            "l",
            "and</w>"
        ],
        [
            "nu",
            "m"
        ],
        [
            "i",
            "ce</w>"
        ],
        [
            "w",
            "ould</w>"
        ],
        [
            "str",
            "u"
        ],
        [
            "h",
            "ip</w>"
        ],
        [
            "a",
            "sed</w>"
        ],
        [
            "rou",
            "g"
        ],
        [
            "roug",
            "h"
        ],
        [
            "e",
            "a</w>"
        ],
        [
            "ough",
            "</w>"
        ],
        [
            "r",
            "eg"
        ],
        [
            "s",
            "hip</w>"
        ],
        [
            "iti",
            "on</w>"
        ],
        [
            "t",
            "al</w>"
        ],
        [
            "t",
            "le</w>"
        ],
        [
            "t",
            "on</w>"
        ],
        [
            "a",
            "tes</w>"
        ],
        [
            "e",
            "tr"
        ],
        [
            "n",
            "or"
        ],
        [
            "al",
            "s</w>"
        ],
        [
            "cu",
            "l"
        ],
        [
            "s",
            "ter"
        ],
        [
            "e",
            "se</w>"
        ],
        [
            "j",
            "u"
        ],
        [
            "m",
            "ost</w>"
        ],
        [
            "ev",
            "er</w>"
        ],
        [
            "e",
            "am</w>"
        ],
        [
            "y",
            "s</w>"
        ],
        [
            "ar",
            "m"
        ],
        [
            "s",
            "ev"
        ],
        [
            "ol",
            "</w>"
        ],
        [
            "o",
            "nly</w>"
        ],
        [
            "th",
            "em"
        ],
        [
            "a",
            "ch"
        ],
        [
            "ag",
            "a"
        ],
        [
            "em",
            "ber</w>"
        ],
        [
            "o",
            "se</w>"
        ],
        [
            "Am",
            "eri"
        ],
        [
            "ou",
            "th</w>"
        ],
        [
            "C",
            "om"
        ],
        [
            "t",
            "ar"
        ],
        [
            "s",
            "ts</w>"
        ],
        [
            "e",
            "cor"
        ],
        [
            "s",
            "el"
        ],
        [
            "y",
            "ing</w>"
        ],
        [
            "g",
            "rou"
        ],
        [
            "i",
            "th"
        ],
        [
            "thr",
            "ee</w>"
        ],
        [
            "p",
            "le</w>"
        ],
        [
            "c",
            "ame</w>"
        ],
        [
            "Austr",
            "ali"
        ],
        [
            "p",
            "ed</w>"
        ],
        [
            "t",
            "or</w>"
        ],
        [
            "e",
            "ng"
        ],
        [
            "s",
            "ted</w>"
        ],
        [
            "oll",
            "ow"
        ],
        [
            "u",
            "p</w>"
        ],
        [
            "su",
            "r"
        ],
        [
            "n",
            "ded</w>"
        ],
        [
            "a",
            "se</w>"
        ],
        [
            "y",
            "ed</w>"
        ],
        [
            "ch",
            "ar"
        ],
        [
            "e",
            "tw"
        ],
        [
            "O",
            "n</w>"
        ],
        [
            "por",
            "t</w>"
        ],
        [
            "e",
            "ct</w>"
        ],
        [
            "th",
            "rough"
        ],
        [
            "a",
            "ch</w>"
        ],
        [
            "w",
            "hile</w>"
        ],
        [
            "cr",
            "i"
        ],
        [
            "c",
            "au"
        ],
        [
            "u",
            "s</w>"
        ],
        [
            "b",
            "eg"
        ],
        [
            "fu",
            "l"
        ],
        [
            "or",
            "i"
        ],
        [
            "n",
            "ted</w>"
        ],
        [
            "s",
            "ide</w>"
        ],
        [
            "b",
            "out</w>"
        ],
        [
            "olo",
            "g"
        ],
        [
            "tr",
            "o"
        ],
        [
            "b",
            "</w>"
        ],
        [
            "i",
            "ns</w>"
        ],
        [
            "w",
            "hen</w>"
        ],
        [
            "S",
            "u"
        ],
        [
            "n",
            "o</w>"
        ],
        [
            "e",
            "for"
        ],
        [
            "o",
            "k</w>"
        ],
        [
            "a",
            "son</w>"
        ],
        [
            "l",
            "t</w>"
        ],
        [
            "ter",
            "s</w>"
        ],
        [
            "ati",
            "ng</w>"
        ],
        [
            "d",
            "y</w>"
        ],
        [
            "ati",
            "onal</w>"
        ],
        [
            "b",
            "er"
        ],
        [
            "o",
            "p</w>"
        ],
        [
            "h",
            "ed</w>"
        ],
        [
            "ol",
            "d</w>"
        ],
        [
            "e",
            "cti"
        ],
        [
            "su",
            "b"
        ],
        [
            "c",
            "ity</w>"
        ],
        [
            "U",
            "S</w>"
        ],
        [
            "bu",
            "i"
        ],
        [
            "ti",
            "on</w>"
        ],
        [
            "f",
            "f</w>"
        ],
        [
            "e",
            "cted</w>"
        ],
        [
            "efor",
            "e</w>"
        ],
        [
            "h",
            "el"
        ],
        [
            "u",
            "e</w>"
        ],
        [
            "a",
            "bout</w>"
        ],
        [
            "etw",
            "een</w>"
        ],
        [
            "m",
            "ar"
        ],
        [
            "p",
            "ol"
        ],
        [
            "e",
            "ing</w>"
        ],
        [
            "th",
            "ough</w>"
        ],
        [
            "N",
            "or"
        ],
        [
            "a",
            "ys</w>"
        ],
        [
            "l",
            "s</w>"
        ],
        [
            "bu",
            "m"
        ],
        [
            "i",
            "nes</w>"
        ],
        [
            "t",
            "ate</w>"
        ],
        [
            "o",
            "nti"
        ],
        [
            "t",
            "tle</w>"
        ],
        [
            "d",
            "es</w>"
        ],
        [
            "e",
            "ason</w>"
        ],
        [
            "G",
            "er"
        ],
        [
            "l",
            "ater</w>"
        ],
        [
            "ear",
            "s</w>"
        ],
        [
            "n",
            "ding</w>"
        ],
        [
            "su",
            "p"
        ],
        [
            "w",
            "here</w>"
        ],
        [
            "o",
            "ok</w>"
        ],
        [
            "th",
            "er"
        ],
        [
            "d",
            "ay</w>"
        ],
        [
            "pu",
            "b"
        ],
        [
            "r",
            "y</w>"
        ],
        [
            "pub",
            "l"
        ],
        [
            "s",
            "hed</w>"
        ],
        [
            "e",
            "sti"
        ],
        [
            "th",
            "i"
        ],
        [
            "o",
            "th</w>"
        ],
        [
            "m",
            "any</w>"
        ],
        [
            "a",
            "ke</w>"
        ],
        [
            "a",
            "id</w>"
        ],
        [
            "e",
            "et</w>"
        ],
        [
            "pro",
            "du"
        ],
        [
            "n",
            "st</w>"
        ],
        [
            "b",
            "etween</w>"
        ],
        [
            "i",
            "nst</w>"
        ],
        [
            "th",
            "an</w>"
        ],
        [
            "v",
            "er</w>"
        ],
        [
            "iti",
            "s"
        ],
        [
            "itis",
            "h"
        ],
        [
            "itish",
            "</w>"
        ],
        [
            "w",
            "ith"
        ],
        [
            "m",
            "ade</w>"
        ],
        [
            "p",
            "er</w>"
        ],
        [
            "al",
            "bum"
        ],
        [
            "em",
            "b"
        ],
        [
            "i",
            "e</w>"
        ],
        [
            "a",
            "cti"
        ],
        [
            "Br",
            "itish</w>"
        ],
        [
            "d",
            "o</w>"
        ],
        [
            "ing",
            "s</w>"
        ],
        [
            "s",
            "ter</w>"
        ],
        [
            "c",
            "ar"
        ],
        [
            "r",
            "ecor"
        ],
        [
            "c",
            "ial</w>"
        ],
        [
            "iti",
            "es</w>"
        ],
        [
            "p",
            "e</w>"
        ],
        [
            "t",
            "en</w>"
        ],
        [
            "C",
            "</w>"
        ],
        [
            "f",
            "ollow"
        ],
        [
            "s",
            "ic</w>"
        ],
        [
            "t",
            "eam</w>"
        ],
        [
            "aga",
            "inst</w>"
        ],
        [
            "i",
            "re</w>"
        ],
        [
            "s",
            "ome</w>"
        ],
        [
            "e",
            "at</w>"
        ],
        [
            "i",
            "ps</w>"
        ],
        [
            "b",
            "efore</w>"
        ],
        [
            "cu",
            "r"
        ],
        [
            "el",
            "i"
        ],
        [
            "b",
            "eing</w>"
        ],
        [
            "s",
            "he</w>"
        ],
        [
            "e",
            "ction</w>"
        ],
        [
            "n",
            "der"
        ],
        [
            "ow",
            "er</w>"
        ],
        [
            "s",
            "eason</w>"
        ],
        [
            "them",
            "</w>"
        ],
        [
            "n",
            "am"
        ],
        [
            "pr",
            "ov"
        ],
        [
            "ar",
            "ds</w>"
        ],
        [
            "par",
            "t</w>"
        ],
        [
            "c",
            "ond</w>"
        ],
        [
            "e",
            "av"
        ],
        [
            "e",
            "cond</w>"
        ],
        [
            "rel",
            "e"
        ],
        [
            "ex",
            "p"
        ],
        [
            "a",
            "ined</w>"
        ],
        [
            "c",
            "onti"
        ],
        [
            "em",
            "ent</w>"
        ],
        [
            "ev",
            "e"
        ],
        [
            "C",
            "ar"
        ],
        [
            "over",
            "n"
        ],
        [
            "through",
            "</w>"
        ],
        [
            "m",
            "ov"
        ],
        [
            "g",
            "ame</w>"
        ],
        [
            "o",
            "per"
        ],
        [
            "z",
            "</w>"
        ],
        [
            "i",
            "ved</w>"
        ],
        [
            "l",
            "a</w>"
        ],
        [
            "num",
            "ber</w>"
        ],
        [
            "u",
            "nder</w>"
        ],
        [
            "Ameri",
            "can</w>"
        ],
        [
            "ev",
            "el"
        ],
        [
            "t",
            "ch</w>"
        ],
        [
            "i",
            "st</w>"
        ],
        [
            "i",
            "sion</w>"
        ],
        [
            "o",
            "od</w>"
        ],
        [
            "t",
            "a</w>"
        ],
        [
            "album",
            "</w>"
        ],
        [
            "i",
            "nal</w>"
        ],
        [
            "or",
            "d"
        ],
        [
            "per",
            "i"
        ],
        [
            "cr",
            "o"
        ],
        [
            "w",
            "ell</w>"
        ],
        [
            "comp",
            "l"
        ],
        [
            "h",
            "ips</w>"
        ],
        [
            "i",
            "stor"
        ],
        [
            "ear",
            "ly</w>"
        ],
        [
            "n",
            "ch</w>"
        ],
        [
            "t",
            "ain</w>"
        ],
        [
            "t",
            "al"
        ],
        [
            "u",
            "sed</w>"
        ],
        [
            "a",
            "k</w>"
        ],
        [
            "y",
            "ear</w>"
        ],
        [
            "d",
            "ge</w>"
        ],
        [
            "om",
            "i"
        ],
        [
            "c",
            "s</w>"
        ],
        [
            "s",
            "hips</w>"
        ],
        [
            "c",
            "ts</w>"
        ],
        [
            "i",
            "ke</w>"
        ],
        [
            "n",
            "er</w>"
        ],
        [
            "n",
            "k</w>"
        ],
        [
            "s",
            "cri"
        ],
        [
            "ch",
            "o"
        ],
        [
            "sev",
            "eral</w>"
        ],
        [
            "n",
            "ited</w>"
        ],
        [
            "f",
            "our</w>"
        ],
        [
            "h",
            "ar"
        ],
        [
            "n",
            "tly</w>"
        ],
        [
            "per",
            "form"
        ],
        [
            "s",
            "ol"
        ],
        [
            "th",
            "en</w>"
        ],
        [
            "u",
            "ding</w>"
        ],
        [
            "v",
            "es</w>"
        ],
        [
            "conti",
            "nu"
        ],
        [
            "a",
            "nu"
        ],
        [
            "i",
            "o</w>"
        ],
        [
            "n",
            "own</w>"
        ],
        [
            "U",
            "nited</w>"
        ],
        [
            "l",
            "uding</w>"
        ],
        [
            "c",
            "luding</w>"
        ],
        [
            "f",
            "fer"
        ],
        [
            "g",
            "n</w>"
        ],
        [
            "i",
            "gn</w>"
        ],
        [
            "t",
            "ch"
        ],
        [
            "ch",
            "a"
        ],
        [
            "n",
            "cluding</w>"
        ],
        [
            "k",
            "nown</w>"
        ],
        [
            "e",
            "came</w>"
        ],
        [
            "b",
            "ecame</w>"
        ],
        [
            "i",
            "nce</w>"
        ],
        [
            "i",
            "sti"
        ],
        [
            "b",
            "oth</w>"
        ],
        [
            "c",
            "all"
        ],
        [
            "c",
            "oun"
        ],
        [
            "e",
            "ts</w>"
        ],
        [
            "s",
            "tar"
        ],
        [
            "i",
            "ncluding</w>"
        ],
        [
            "cr",
            "a"
        ],
        [
            "n",
            "ese</w>"
        ],
        [
            "T",
            "his</w>"
        ],
        [
            "i",
            "shed</w>"
        ],
        [
            "d",
            "ian</w>"
        ],
        [
            "s",
            "ing"
        ],
        [
            "i",
            "ly</w>"
        ],
        [
            "th",
            "ere</w>"
        ],
        [
            "s",
            "econd</w>"
        ],
        [
            "su",
            "ch</w>"
        ],
        [
            "p",
            "t</w>"
        ],
        [
            "beg",
            "an</w>"
        ],
        [
            "e",
            "k</w>"
        ],
        [
            "f",
            "e</w>"
        ],
        [
            "n",
            "er"
        ],
        [
            "ow",
            "ever</w>"
        ],
        [
            "o",
            "ad</w>"
        ],
        [
            "e",
            "ti"
        ],
        [
            "the",
            "se</w>"
        ],
        [
            "a",
            "tur"
        ],
        [
            "h",
            "or"
        ],
        [
            "Nor",
            "th</w>"
        ],
        [
            "i",
            "el"
        ],
        [
            "M",
            "u"
        ],
        [
            "e",
            "tur"
        ],
        [
            "Com",
            "m"
        ],
        [
            "m",
            "s</w>"
        ],
        [
            "i",
            "ous</w>"
        ],
        [
            "A",
            "fter</w>"
        ],
        [
            "c",
            "er"
        ],
        [
            "N",
            "er"
        ],
        [
            "v",
            "ing</w>"
        ],
        [
            "d",
            "evel"
        ],
        [
            "i",
            "ning</w>"
        ],
        [
            "s",
            "ong</w>"
        ],
        [
            "tra",
            "n"
        ],
        [
            "y",
            "ears</w>"
        ],
        [
            "b",
            "ack</w>"
        ],
        [
            "c",
            "tor"
        ],
        [
            "l",
            "ine</w>"
        ],
        [
            "r",
            "etur"
        ],
        [
            "t",
            "ary</w>"
        ],
        [
            "tr",
            "i"
        ],
        [
            "b",
            "or"
        ],
        [
            "i",
            "ons</w>"
        ],
        [
            "s",
            "tu"
        ],
        [
            "c",
            "ks</w>"
        ],
        [
            "i",
            "ver"
        ],
        [
            "n",
            "stru"
        ],
        [
            "o",
            "s</w>"
        ],
        [
            "tran",
            "s"
        ],
        [
            "a",
            "ced</w>"
        ],
        [
            "c",
            "ould</w>"
        ],
        [
            "o",
            "on</w>"
        ],
        [
            "u",
            "st</w>"
        ],
        [
            "H",
            "u"
        ],
        [
            "e",
            "nded</w>"
        ],
        [
            "o",
            "ck</w>"
        ],
        [
            "W",
            "or"
        ],
        [
            "c",
            "y</w>"
        ],
        [
            "e",
            "ntr"
        ],
        [
            "o",
            "ntr"
        ],
        [
            "ol",
            "i"
        ],
        [
            "e",
            "ach</w>"
        ],
        [
            "a",
            "ss</w>"
        ],
        [
            "c",
            "tor</w>"
        ],
        [
            "su",
            "c"
        ],
        [
            "g",
            "overn"
        ],
        [
            "p",
            "tem"
        ],
        [
            "pu",
            "l"
        ],
        [
            "s",
            "tate</w>"
        ],
        [
            "wor",
            "k</w>"
        ],
        [
            "i",
            "ver</w>"
        ],
        [
            "w",
            "ar</w>"
        ],
        [
            "i",
            "nd</w>"
        ],
        [
            "d",
            "em"
        ],
        [
            "e",
            "ast</w>"
        ],
        [
            "e",
            "ptem"
        ],
        [
            "S",
            "eptem"
        ],
        [
            "Septem",
            "ber</w>"
        ],
        [
            "l",
            "ing</w>"
        ],
        [
            "n",
            "ces</w>"
        ],
        [
            "r",
            "on</w>"
        ],
        [
            "e",
            "an</w>"
        ],
        [
            "suc",
            "c"
        ],
        [
            "h",
            "istor"
        ],
        [
            "s",
            "ive</w>"
        ],
        [
            "z",
            "ed</w>"
        ],
        [
            "w",
            "ard</w>"
        ],
        [
            "M",
            "ay</w>"
        ],
        [
            "d",
            "id</w>"
        ],
        [
            "e",
            "pres"
        ],
        [
            "ster",
            "n</w>"
        ],
        [
            "n",
            "ar</w>"
        ],
        [
            "u",
            "n</w>"
        ],
        [
            "W",
            "ar</w>"
        ],
        [
            "al",
            "ong</w>"
        ],
        [
            "ori",
            "g"
        ],
        [
            "a",
            "ds</w>"
        ],
        [
            "s",
            "aid</w>"
        ],
        [
            "am",
            "es</w>"
        ],
        [
            "h",
            "at</w>"
        ],
        [
            "t",
            "ates</w>"
        ],
        [
            "i",
            "nt</w>"
        ],
        [
            "a",
            "yed</w>"
        ],
        [
            "n",
            "ning</w>"
        ],
        [
            "n",
            "tu"
        ],
        [
            "s",
            "sion</w>"
        ],
        [
            "v",
            "ision</w>"
        ],
        [
            "str",
            "i"
        ],
        [
            "c",
            "o</w>"
        ],
        [
            "c",
            "ontr"
        ],
        [
            "n",
            "ally</w>"
        ],
        [
            "n",
            "du"
        ],
        [
            "a",
            "tch</w>"
        ],
        [
            "b",
            "all</w>"
        ],
        [
            "e",
            "su"
        ],
        [
            "devel",
            "o"
        ],
        [
            "r",
            "d</w>"
        ],
        [
            "s",
            "nar</w>"
        ],
        [
            "e",
            "snar</w>"
        ],
        [
            "L",
            "esnar</w>"
        ],
        [
            "sel",
            "f</w>"
        ],
        [
            "l",
            "ike</w>"
        ],
        [
            "m",
            "y</w>"
        ],
        [
            "qu",
            "a"
        ],
        [
            "t",
            "ely</w>"
        ],
        [
            "u",
            "ded</w>"
        ],
        [
            "e",
            "ntly</w>"
        ],
        [
            "v",
            "ol"
        ],
        [
            "i",
            "red</w>"
        ],
        [
            "c",
            "a</w>"
        ],
        [
            "c",
            "ation</w>"
        ],
        [
            "call",
            "ed</w>"
        ],
        [
            "l",
            "er</w>"
        ],
        [
            "or",
            "k</w>"
        ],
        [
            "P",
            "ar"
        ],
        [
            "ang",
            "e</w>"
        ],
        [
            "i",
            "ded</w>"
        ],
        [
            "o",
            "ff</w>"
        ],
        [
            "r",
            "esu"
        ],
        [
            "c",
            "ated</w>"
        ],
        [
            "i",
            "vision</w>"
        ],
        [
            "cau",
            "se</w>"
        ],
        [
            "l",
            "uded</w>"
        ],
        [
            "c",
            "luded</w>"
        ],
        [
            "n",
            "ch"
        ],
        [
            "omi",
            "n"
        ],
        [
            "Au",
            "g"
        ],
        [
            "ati",
            "ve</w>"
        ],
        [
            "e",
            "al"
        ],
        [
            "l",
            "ion</w>"
        ],
        [
            "t",
            "ation</w>"
        ],
        [
            "Al",
            "l"
        ],
        [
            "i",
            "ble</w>"
        ],
        [
            "ser",
            "ies</w>"
        ],
        [
            "F",
            "or"
        ],
        [
            "l",
            "ace</w>"
        ],
        [
            "nti",
            "l"
        ],
        [
            "ow",
            "n"
        ],
        [
            "ar",
            "ound</w>"
        ],
        [
            "m",
            "es</w>"
        ],
        [
            "g",
            "ned</w>"
        ],
        [
            "n",
            "cluded</w>"
        ],
        [
            "o",
            "ple</w>"
        ],
        [
            "o",
            "sed</w>"
        ],
        [
            "h",
            "ow</w>"
        ],
        [
            "par",
            "ti"
        ],
        [
            "t",
            "ter</w>"
        ],
        [
            "a",
            "king</w>"
        ],
        [
            "a",
            "nds</w>"
        ],
        [
            "c",
            "our"
        ],
        [
            "l",
            "lion</w>"
        ],
        [
            "n",
            "other</w>"
        ],
        [
            "Ju",
            "ne</w>"
        ],
        [
            "ou",
            "s"
        ],
        [
            "f",
            "ied</w>"
        ],
        [
            "n",
            "eral</w>"
        ],
        [
            "ntil",
            "</w>"
        ],
        [
            "A",
            "s</w>"
        ],
        [
            "N",
            "ov"
        ],
        [
            "s",
            "ou"
        ],
        [
            "w",
            "s</w>"
        ],
        [
            "e",
            "ople</w>"
        ],
        [
            "i",
            "llion</w>"
        ],
        [
            "m",
            "en</w>"
        ],
        [
            "p",
            "ical</w>"
        ],
        [
            "s",
            "ses</w>"
        ],
        [
            "ar",
            "ea</w>"
        ],
        [
            "char",
            "a"
        ],
        [
            "chara",
            "c"
        ],
        [
            "m",
            "ed</w>"
        ],
        [
            "ser",
            "v"
        ],
        [
            "t",
            "ook</w>"
        ],
        [
            "Br",
            "i"
        ],
        [
            "p",
            "lace</w>"
        ],
        [
            "l",
            "ay</w>"
        ],
        [
            "s",
            "sed</w>"
        ],
        [
            "a",
            "ttle</w>"
        ],
        [
            "n",
            "ess</w>"
        ],
        [
            "f",
            "ound</w>"
        ],
        [
            "ther",
            "n</w>"
        ],
        [
            "e",
            "ed</w>"
        ],
        [
            "t",
            "ar</w>"
        ],
        [
            "u",
            "ntil</w>"
        ],
        [
            "der",
            "ed</w>"
        ],
        [
            "follow",
            "ing</w>"
        ],
        [
            "fr",
            "i"
        ],
        [
            "i",
            "gned</w>"
        ],
        [
            "p",
            "ted</w>"
        ],
        [
            "d",
            "am"
        ],
        [
            "ful",
            "</w>"
        ],
        [
            "S",
            "outh</w>"
        ],
        [
            "a",
            "nese</w>"
        ],
        [
            "b",
            "ed</w>"
        ],
        [
            "h",
            "ead</w>"
        ],
        [
            "or",
            "g"
        ],
        [
            "s",
            "igned</w>"
        ],
        [
            "w",
            "est</w>"
        ],
        [
            "c",
            "ing</w>"
        ],
        [
            "e",
            "neral</w>"
        ],
        [
            "p",
            "ear"
        ],
        [
            "a",
            "th</w>"
        ],
        [
            "e",
            "ek</w>"
        ],
        [
            "e",
            "str"
        ],
        [
            "Aug",
            "ust</w>"
        ],
        [
            "d",
            "own</w>"
        ],
        [
            "ol",
            "e</w>"
        ],
        [
            "u",
            "ns</w>"
        ],
        [
            "y",
            "er</w>"
        ],
        [
            "a",
            "ne</w>"
        ],
        [
            "o",
            "te</w>"
        ],
        [
            "p",
            "anese</w>"
        ],
        [
            "a",
            "panese</w>"
        ],
        [
            "w",
            "ar"
        ],
        [
            "J",
            "apanese</w>"
        ],
        [
            "t",
            "age</w>"
        ],
        [
            "bui",
            "lt</w>"
        ],
        [
            "e",
            "cause</w>"
        ],
        [
            "i",
            "sed</w>"
        ],
        [
            "iver",
            "s"
        ],
        [
            "a",
            "ins</w>"
        ],
        [
            "n",
            "ter</w>"
        ],
        [
            "B",
            "</w>"
        ],
        [
            "c",
            "oll"
        ],
        [
            "for",
            "ces</w>"
        ],
        [
            "rele",
            "ased</w>"
        ],
        [
            "Australi",
            "an</w>"
        ],
        [
            "Ger",
            "man</w>"
        ],
        [
            "M",
            "</w>"
        ],
        [
            "S",
            "he</w>"
        ],
        [
            "cr",
            "iti"
        ],
        [
            "h",
            "al"
        ],
        [
            "o",
            "ber</w>"
        ],
        [
            "o",
            "nes</w>"
        ],
        [
            "t",
            "ober</w>"
        ],
        [
            "c",
            "tober</w>"
        ],
        [
            "O",
            "ctober</w>"
        ],
        [
            "e",
            "o</w>"
        ],
        [
            "l",
            "ayed</w>"
        ],
        [
            "Ner",
            "o</w>"
        ],
        [
            "p",
            "layed</w>"
        ],
        [
            "A",
            "t</w>"
        ],
        [
            "Nov",
            "ember</w>"
        ],
        [
            "d",
            "iti"
        ],
        [
            "e",
            "scri"
        ],
        [
            "lar",
            "ge</w>"
        ],
        [
            "o",
            "ned</w>"
        ],
        [
            "t",
            "olog"
        ],
        [
            "F",
            "</w>"
        ],
        [
            "a",
            "ct</w>"
        ],
        [
            "o",
            "ti"
        ],
        [
            "o",
            "ps</w>"
        ],
        [
            "pu",
            "r"
        ],
        [
            "d",
            "ent</w>"
        ],
        [
            "i",
            "fe</w>"
        ],
        [
            "l",
            "ong</w>"
        ],
        [
            "n",
            "ow</w>"
        ],
        [
            "p",
            "ing</w>"
        ],
        [
            "p",
            "pear"
        ],
        [
            "a",
            "ppear"
        ],
        [
            "u",
            "nder"
        ],
        [
            "a",
            "nti"
        ],
        [
            "d",
            "ers</w>"
        ],
        [
            "k",
            "en</w>"
        ],
        [
            "l",
            "ight</w>"
        ],
        [
            "ord",
            "an</w>"
        ],
        [
            "J",
            "ordan</w>"
        ],
        [
            "d",
            "ition</w>"
        ],
        [
            "e",
            "par"
        ],
        [
            "T",
            "</w>"
        ],
        [
            "o",
            "ds</w>"
        ],
        [
            "ou",
            "t"
        ],
        [
            "s",
            "tem"
        ],
        [
            "v",
            "ar"
        ],
        [
            "J",
            "anu"
        ],
        [
            "al",
            "e</w>"
        ],
        [
            "d",
            "a</w>"
        ],
        [
            "i",
            "ncluded</w>"
        ],
        [
            "k",
            "er</w>"
        ],
        [
            "n",
            "tolog"
        ],
        [
            "o",
            "de</w>"
        ],
        [
            "qua",
            "d"
        ],
        [
            "ex",
            "t</w>"
        ],
        [
            "Janu",
            "ary</w>"
        ],
        [
            "e",
            "ach"
        ],
        [
            "m",
            "illion</w>"
        ],
        [
            "o",
            "nstru"
        ],
        [
            "r",
            "am"
        ],
        [
            "er",
            "y</w>"
        ],
        [
            "f",
            "ive</w>"
        ],
        [
            "iel",
            "d</w>"
        ],
        [
            "m",
            "all</w>"
        ],
        [
            "s",
            "ions</w>"
        ],
        [
            "d",
            "escri"
        ],
        [
            "s",
            "su"
        ],
        [
            "n",
            "tur"
        ],
        [
            "e",
            "ntur"
        ],
        [
            "p",
            "ped</w>"
        ],
        [
            "s",
            "equ"
        ],
        [
            "y",
            "ou"
        ],
        [
            "Wor",
            "ld</w>"
        ],
        [
            "bu",
            "r"
        ],
        [
            "compl",
            "e"
        ],
        [
            "e",
            "ived</w>"
        ],
        [
            "c",
            "eived</w>"
        ],
        [
            "i",
            "ans</w>"
        ],
        [
            "a",
            "nk</w>"
        ],
        [
            "a",
            "tely</w>"
        ],
        [
            "p",
            "eople</w>"
        ],
        [
            "S",
            "tates</w>"
        ],
        [
            "ar",
            "ti"
        ],
        [
            "s",
            "ince</w>"
        ],
        [
            "Y",
            "ork</w>"
        ],
        [
            "govern",
            "ment</w>"
        ],
        [
            "i",
            "ch"
        ],
        [
            "nam",
            "ed</w>"
        ],
        [
            "p",
            "ti"
        ],
        [
            "succ",
            "e"
        ],
        [
            "a",
            "ction</w>"
        ],
        [
            "e",
            "atur"
        ],
        [
            "e",
            "cts</w>"
        ],
        [
            "f",
            "eatur"
        ],
        [
            "l",
            "aced</w>"
        ],
        [
            "ag",
            "ed</w>"
        ],
        [
            "e",
            "nch</w>"
        ],
        [
            "i",
            "ving</w>"
        ],
        [
            "p",
            "laced</w>"
        ],
        [
            "e",
            "ag"
        ],
        [
            "i",
            "tary</w>"
        ],
        [
            "per",
            "s"
        ],
        [
            "por",
            "ted</w>"
        ],
        [
            "h",
            "ey</w>"
        ],
        [
            "n",
            "ation</w>"
        ],
        [
            "p",
            "lay</w>"
        ],
        [
            "T",
            "hey</w>"
        ],
        [
            "chi",
            "l"
        ],
        [
            "e",
            "cu"
        ],
        [
            "grou",
            "p</w>"
        ],
        [
            "R",
            "ou"
        ],
        [
            "a",
            "ts</w>"
        ],
        [
            "h",
            "eav"
        ],
        [
            "n",
            "ational</w>"
        ],
        [
            "a",
            "ther</w>"
        ],
        [
            "cra",
            "ft</w>"
        ],
        [
            "e",
            "nted</w>"
        ],
        [
            "l",
            "ity</w>"
        ],
        [
            "t",
            "op</w>"
        ],
        [
            "c",
            "ked</w>"
        ],
        [
            "e",
            "ntolog"
        ],
        [
            "i",
            "entolog"
        ],
        [
            "c",
            "ientolog"
        ],
        [
            "S",
            "cientolog"
        ],
        [
            "n",
            "cre"
        ],
        [
            "n",
            "ivers"
        ],
        [
            "s",
            "ame</w>"
        ],
        [
            "c",
            "entr"
        ],
        [
            "fu",
            "r"
        ],
        [
            "l",
            "itary</w>"
        ],
        [
            "i",
            "litary</w>"
        ],
        [
            "m",
            "ents</w>"
        ],
        [
            "n",
            "th</w>"
        ],
        [
            "o",
            "pul"
        ],
        [
            "s",
            "cor"
        ],
        [
            "c",
            "onstru"
        ],
        [
            "c",
            "over"
        ],
        [
            "s",
            "ition</w>"
        ],
        [
            "b",
            "ecause</w>"
        ],
        [
            "s",
            "mall</w>"
        ],
        [
            "u",
            "se</w>"
        ],
        [
            "u",
            "sic</w>"
        ],
        [
            "m",
            "usic</w>"
        ],
        [
            "e",
            "ak</w>"
        ],
        [
            "e",
            "er</w>"
        ],
        [
            "eg",
            "i"
        ],
        [
            "j",
            "or</w>"
        ],
        [
            "a",
            "jor</w>"
        ],
        [
            "m",
            "atch</w>"
        ],
        [
            "t",
            "tem"
        ],
        [
            "a",
            "yer</w>"
        ],
        [
            "c",
            "entur"
        ],
        [
            "i",
            "la</w>"
        ],
        [
            "D",
            "</w>"
        ],
        [
            "Rou",
            "te</w>"
        ],
        [
            "f",
            "ire</w>"
        ],
        [
            "o",
            "sition</w>"
        ],
        [
            "r",
            "ench</w>"
        ],
        [
            "F",
            "rench</w>"
        ],
        [
            "recor",
            "d</w>"
        ],
        [
            "M",
            "c"
        ],
        [
            "N",
            "</w>"
        ],
        [
            "l",
            "ate</w>"
        ],
        [
            "n",
            "ia</w>"
        ],
        [
            "A",
            "ng"
        ],
        [
            "Ju",
            "ly</w>"
        ],
        [
            "h",
            "er"
        ],
        [
            "n",
            "ila</w>"
        ],
        [
            "e",
            "ight</w>"
        ],
        [
            "i",
            "er</w>"
        ],
        [
            "sing",
            "le</w>"
        ],
        [
            "t",
            "own</w>"
        ],
        [
            "c",
            "ember</w>"
        ],
        [
            "d",
            "en</w>"
        ],
        [
            "e",
            "cember</w>"
        ],
        [
            "D",
            "ecember</w>"
        ],
        [
            "i",
            "ck</w>"
        ],
        [
            "o",
            "th"
        ],
        [
            "p",
            "opul"
        ],
        [
            "s",
            "is</w>"
        ],
        [
            "e",
            "ceived</w>"
        ],
        [
            "hel",
            "d</w>"
        ],
        [
            "t",
            "t</w>"
        ],
        [
            "al",
            "though</w>"
        ],
        [
            "com",
            "e</w>"
        ],
        [
            "k",
            "es</w>"
        ],
        [
            "o",
            "ted</w>"
        ],
        [
            "r",
            "eceived</w>"
        ],
        [
            "s",
            "ible</w>"
        ],
        [
            "s",
            "sing</w>"
        ],
        [
            "a",
            "nila</w>"
        ],
        [
            "M",
            "anila</w>"
        ],
        [
            "e",
            "ft</w>"
        ],
        [
            "e",
            "ter"
        ],
        [
            "i",
            "lity</w>"
        ],
        [
            "n",
            "ced</w>"
        ],
        [
            "tro",
            "pical</w>"
        ],
        [
            "K",
            "</w>"
        ],
        [
            "a",
            "ttem"
        ],
        [
            "c",
            "arr"
        ],
        [
            "e",
            "ath</w>"
        ],
        [
            "p",
            "pro"
        ],
        [
            "E",
            "</w>"
        ],
        [
            "a",
            "ture</w>"
        ],
        [
            "continu",
            "ed</w>"
        ],
        [
            "fr",
            "o"
        ],
        [
            "t",
            "ack</w>"
        ],
        [
            "w",
            "hat</w>"
        ],
        [
            "R",
            "</w>"
        ],
        [
            "S",
            "tr"
        ],
        [
            "e",
            "ner"
        ],
        [
            "h",
            "ou"
        ],
        [
            "l",
            "ar</w>"
        ],
        [
            "s",
            "land</w>"
        ],
        [
            "y",
            "stem"
        ],
        [
            "N",
            "o</w>"
        ],
        [
            "a",
            "ng</w>"
        ],
        [
            "el",
            "e"
        ],
        [
            "f",
            "am"
        ],
        [
            "org",
            "a"
        ],
        [
            "orga",
            "n"
        ],
        [
            "p",
            "osition</w>"
        ],
        [
            "publ",
            "ic</w>"
        ],
        [
            "t",
            "ant</w>"
        ],
        [
            "t",
            "ball</w>"
        ],
        [
            "ag",
            "r"
        ],
        [
            "i",
            "sts</w>"
        ],
        [
            "n",
            "se</w>"
        ],
        [
            "nor",
            "th</w>"
        ],
        [
            "du",
            "e</w>"
        ],
        [
            "i",
            "zed</w>"
        ],
        [
            "l",
            "ayer</w>"
        ],
        [
            "l",
            "eft</w>"
        ],
        [
            "m",
            "etr"
        ],
        [
            "r",
            "evi"
        ],
        [
            "t",
            "tal"
        ],
        [
            "c",
            "ou"
        ],
        [
            "e",
            "nter</w>"
        ],
        [
            "ov",
            "e</w>"
        ],
        [
            "H",
            "owever</w>"
        ],
        [
            "a",
            "ppro"
        ],
        [
            "e",
            "du"
        ],
        [
            "n",
            "su"
        ],
        [
            "s",
            "et</w>"
        ],
        [
            "t",
            "tack</w>"
        ],
        [
            "A",
            "pri"
        ],
        [
            "Apri",
            "l"
        ],
        [
            "April",
            "</w>"
        ],
        [
            "C",
            "ol"
        ],
        [
            "a",
            "ying</w>"
        ],
        [
            "ag",
            "ain</w>"
        ],
        [
            "ntr",
            "y</w>"
        ],
        [
            "t",
            "one</w>"
        ],
        [
            "v",
            "ely</w>"
        ],
        [
            "c",
            "ally</w>"
        ],
        [
            "l",
            "led</w>"
        ],
        [
            "r",
            "craft</w>"
        ],
        [
            "i",
            "rcraft</w>"
        ],
        [
            "r",
            "equ"
        ],
        [
            "n",
            "ey</w>"
        ],
        [
            "pro",
            "t"
        ],
        [
            "I",
            "I</w>"
        ],
        [
            "i",
            "sted</w>"
        ],
        [
            "I",
            "m"
        ],
        [
            "K",
            "or"
        ],
        [
            "a",
            "nother</w>"
        ],
        [
            "a",
            "ttack</w>"
        ],
        [
            "e",
            "as</w>"
        ],
        [
            "Bu",
            "r"
        ],
        [
            "a",
            "ntry</w>"
        ],
        [
            "ju",
            "st</w>"
        ],
        [
            "b",
            "ility</w>"
        ],
        [
            "for",
            "ce</w>"
        ],
        [
            "l",
            "au"
        ],
        [
            "n",
            "ear</w>"
        ],
        [
            "s",
            "outh</w>"
        ],
        [
            "Australi",
            "a</w>"
        ],
        [
            "N",
            "ational</w>"
        ],
        [
            "a",
            "tor"
        ],
        [
            "centur",
            "y</w>"
        ],
        [
            "e",
            "ws</w>"
        ],
        [
            "f",
            "antry</w>"
        ],
        [
            "grou",
            "nd</w>"
        ],
        [
            "i",
            "se</w>"
        ],
        [
            "n",
            "fantry</w>"
        ],
        [
            "n",
            "vol"
        ],
        [
            "u",
            "ring</w>"
        ],
        [
            "with",
            "in</w>"
        ],
        [
            "i",
            "nvol"
        ],
        [
            "l",
            "ow</w>"
        ],
        [
            "lar",
            "g"
        ],
        [
            "n",
            "ity</w>"
        ],
        [
            "o",
            "yed</w>"
        ],
        [
            "d",
            "io</w>"
        ],
        [
            "i",
            "lled</w>"
        ],
        [
            "m",
            "ay</w>"
        ],
        [
            "s",
            "ite</w>"
        ],
        [
            "stor",
            "m"
        ],
        [
            "v",
            "en</w>"
        ],
        [
            "D",
            "uring</w>"
        ],
        [
            "c",
            "cor"
        ],
        [
            "ev",
            "en</w>"
        ],
        [
            "m",
            "ilitary</w>"
        ],
        [
            "n",
            "ext</w>"
        ],
        [
            "o",
            "cal</w>"
        ],
        [
            "quad",
            "ron</w>"
        ],
        [
            "storm",
            "</w>"
        ],
        [
            "succe",
            "s"
        ],
        [
            "am",
            "b"
        ],
        [
            "e",
            "al</w>"
        ],
        [
            "s",
            "ode</w>"
        ],
        [
            "i",
            "sode</w>"
        ],
        [
            "p",
            "isode</w>"
        ],
        [
            "cro",
            "ss</w>"
        ],
        [
            "e",
            "pisode</w>"
        ],
        [
            "hal",
            "f</w>"
        ],
        [
            "i",
            "nally</w>"
        ],
        [
            "iti",
            "ng</w>"
        ],
        [
            "n",
            "tra"
        ],
        [
            "t",
            "ter"
        ],
        [
            "a",
            "ircraft</w>"
        ],
        [
            "i",
            "ncre"
        ],
        [
            "rel",
            "i"
        ],
        [
            "D",
            "ivision</w>"
        ],
        [
            "b",
            "and</w>"
        ],
        [
            "d",
            "ly</w>"
        ],
        [
            "e",
            "ned</w>"
        ],
        [
            "h",
            "ome</w>"
        ],
        [
            "pr",
            "evi"
        ],
        [
            "tro",
            "ops</w>"
        ],
        [
            "e",
            "sted</w>"
        ],
        [
            "form",
            "</w>"
        ],
        [
            "fur",
            "ther</w>"
        ],
        [
            "i",
            "dge</w>"
        ],
        [
            "s",
            "cho"
        ],
        [
            "u",
[...]
